[PAD]
[UNK]
[CLS]
[SEP]
[MASK]
!
"
#
$
%
&
'
(
)
*
+
,
-
.
/
0
1
2
3
4
5
6
7
8
9
:
;
<
=
>
?
@
[
\
]
^
_
`
a
b
c
d
e
f
g
h
i
j
k
l
m
n
o
p
q
r
s
t
u
v
w
x
y
z
{
|
}
~
¡
¢
£
¤
¥
¦
§
¨
©
ª
«
¬
®
¯
°
±
²
³
´
µ
¶
·
¸
¹
º
»
¼
½
¾
¿
×
ß
æ
ð
÷
ø
þ
đ
ħ
ı
ĸ
ł
ŋ
œ
ƒ
ƙ
ƛ
ƞ
ƭ
ƴ
ƶ
ƺ
ƿ
ǀ
ǁ
ǂ
ȣ
ȥ
ȵ
ȶ
ȼ
ɐ
ɑ
ɒ
ɓ
ɔ
ɕ
ɖ
ɗ
ə
ɚ
ɛ
ɝ
ɡ
ɣ
ɤ
ɥ
ɨ
ɩ
ɪ
ɭ
ɯ
ɰ
ɱ
ɲ
ɳ
ɵ
ɶ
ɷ
ɸ
ɹ
ɻ
ɽ
ɾ
ɿ
ʀ
ʁ
ʂ
ʃ
ʅ
ʈ
ʉ
ʊ
ʋ
ʌ
ʎ
ʏ
ʐ
ʑ
ʒ
ʔ
ʕ
ʘ
ʝ
ʟ
ʤ
ʦ
ʧ
ʰ
ʷ
ʹ
ʼ
ʾ
˂
˃
˄
ˆ
ˇ
ˉ
ː
ˑ
˘
˙
˚
˜
˝
˟
˧
˪
˭
ˮ
ͱ
ͳ
ͻ
΀
΁
΃
΄
΍
α
β
γ
δ
ε
ζ
η
θ
ι
κ
λ
μ
ν
ξ
ο
π
ρ
ς
σ
τ
υ
φ
χ
ψ
ω
ϐ
ϑ
ϒ
ϕ
ϖ
ϝ
ϡ
ϫ
ϭ
ϰ
ϱ
ϲ
ϵ
ϼ
а
б
в
г
д
е
ж
з
и
к
л
м
н
о
п
р
с
т
у
ф
х
ц
ч
ш
щ
ь
э
ю
я
є
ѕ
і
ј
ѱ
ѳ
ѵ
ґ
қ
ҝ
ҡ
ҫ
ү
ұ
ҳ
һ
ӏ
ӕ
ә
ө
ӽ
ӿ
ԏ
ԑ
ՙ
՚
՛
ւ
־
א
ב
ו
י
ר
ש
ת
׳
״
،
ا
ب
ᴅ
ᴋ
ᴍ
ᴏ
ᴐ
ᴓ
ᴨ
ᴪ
ᴳ
ᴼ
ᴽ
ᵒ
ᵗ
ᵝ
ᵞ
ᵢ
ᵦ
ᵧ
ᵪ
ᵹ
ᶺ
᾽
᾿
‐
‑
‒
–
—
―
‖
‘
’
‚
‛
“
”
„
‟
†
‡
•
‥
…
‧
‰
‱
′
″
‴
‹
›
※
‾
‿
⁁
⁃
⁄
⁎
⁗
⁰
ⁱ
⁴
⁵
⁶
⁷
⁸
⁹
⁺
⁻
₀
₁
₂
₃
₄
₅
₆
₇
₈
₉
₋
ₓ
ₘ
ₙ
₣
₤
₦
₩
€
₵
₹
₺
₿
ℂ
℃
℅
ℇ
ℋ
ℏ
ℑ
ℒ
ℓ
ℕ
№
℗
℘
ℙ
ℛ
ℜ
ℝ
℞
℠
™
ℤ
℧
ℬ
℮
ℰ
ℱ
ℳ
ℵ
⅓
⅔
⅚
⅛
⅜
ⅰ
ⅱ
ⅲ
ⅳ
ⅴ
ⅵ
ⅶ
ⅷ
ⅸ
ⅹ
ⅺ
ⅻ
←
↑
→
↓
↔
↕
↗
↘
↙
↦
↿
⇄
⇆
⇋
⇌
⇐
⇑
⇒
⇓
⇔
⇝
⇿
∀
∂
∃
∅
∆
∇
∈
∊
∏
∐
∑
−
∓
∕
∖
∗
∘
∙
√
∛
∝
∞
∟
∠
∣
∥
∧
∨
∩
∪
∫
∴
∶
∷
∸
∼
∽
≃
≅
≈
≊
≌
≍
≑
≒
≙
≡
≤
≥
≦
≧
≪
≫
≲
≳
≶
≷
≺
≻
≽
≿
⊂
⊃
⊆
⊔
⊕
⊖
⊗
⊙
⊚
⊛
⊟
⊠
⊣
⊥
⊿
⋄
⋅
⋆
⋘
⋙
⋜
⋝
⋮
⋯
⌀
⌈
⌉
⌋
⌜
⌝
⌢
⌣
⍴
⍺
⎔
⎕
⎯
⎼
␣
①
②
③
④
⑤
⑥
⑦
⑩
⑴
⑵
⑶
ⓒ
ⓡ
─
│
┅
┏
┛
├
┤
┴
═
║
░
▒
▓
■
□
▪
▬
▲
△
▴
▵
▶
▸
▹
►
▼
▽
▾
▿
◆
◇
◊
○
●
◦
◯
◻
★
☆
☺
♀
♂
♢
♦
♪
♭
♯
✓
✕
✜
✠
✧
❖
➀
➁
➔
➝
➞
➤
⟂
⟨
⟩
⟶
⠙
⤳
⦌
⧁
⧧
⧸
⧹
⨁
⨪
⨯
⩒
⩽
⩾
⩿
⪅
⪆
⪕
⪖
⪡
⪢
⬄
⬓
⬜
⬢
⬧
⬰
⬽
ⱔ
ⱪ
ⱶ
⿿
、
。
〈
〉
《
》
「
」
【
】
〓
〔
〕
〖
〗
〜
〝
〟
꞉
꞊
ꞌ
ꞵ
ﬀ
ﬁ
ﬂ
ﬃ
ﬅ
﴾
﴿
︰
﹒
﹙
﹚
﹢
﹣
﹤
﹥
﹪
＄
％
＆
＇
（
）
＊
＋
，
－
．
／
：
；
＜
＝
＞
？
［
］
＾
＿
ｇ
ｉ
ｍ
ｐ
ｖ
ｗ
｛
｜
｝
～
｣
､
･
ｧ
ｱ
ｵ
ﾀ
ﾓ
ￗ
ￚ
￠
￡
￢
￥
￼
𝐑
𝐟
𝑀
𝑁
𝑃
𝑅
𝑇
𝑎
𝑐
𝑑
𝑒
𝑓
𝑖
𝑛
𝑜
𝑟
𝑡
𝒙
𝒞
𝒦
𝒫
𝒯
𝔻
𝕜
𝛋
𝛼
𝛽
𝛾
𝜀
𝜅
𝜌
𝜎
𝜖
𝟀
񥌈
##r
##t
##b
##c
##a
##s
##u
##l
##n
##e
##i
##d
##o
##v
##2
##p
##g
##6
##×
##0
##9
##™
##4
##7
##3
##h
##y
##m
##x
##1
##w
##k
##5
##q
##8
##μ
##f
##j
##α
##z
##≥
##±
##°
##₂
##⩽
##λ
##≈
##®
##₅
##₀
##β
##ρ
##⁻
##²
##κ
##δ
##¹
##∼
##≤
##₃
##˙
##∗
##ł
##©
##γ
##₁
##−
##∶
##µ
##₉
##₄
##º
##⁺
##→
##⁹
##⁷
##⋅
##∙
##¨
##∕
##³
##∆
##θ
##₋
##æ
##а
##с
##η
##ε
##↓
##∓
##ø
##о
##₆
##√
##€
##⩾
##ß
##∊
##─
##∈
##ı
##⁵
##⁴
##¥
##б
##л
##и
##в
##т
##і
##⁸
##ω
##ν
##ⅱ
##←
##χ
##ζ
##¢
##÷
##¯
##⬢
##≲
##↔
##´
##⁄
##π
##∩
##∣
##₇
##＋
##φ
##ς
##ⅰ
##⁶
##⁰
##∘
##ⅲ
##е
##н
##р
##ь
##ψ
##є
##⊂
##≧
##ο
##˚
##⇌
##⊥
##˜
##ɑ
##┤
##τ
##⊕
##₈
##═
##≪
##≦
##ι
##ﬁ
##≫
##＝
##◦
##ɛ
##＞
##～
##░
##↕
##↑
##♂
##¸
##ߚ
##ϕ
##σ
##ɸ
##∖
##¬
##˝
##ⅵ
##¼
##┴
##℅
##∞
##ɕ
##≍
##œ
##΄
##○
##ﬂ
##⊃
##м
##│
##℃
##⋯
##⊖
##ϵ
##△
##♀
##د
##م
##ة
##➔
##▬
##∑
##ц
##ℓ
##þ
##∝
##ⅳ
##②
##≅
##ℜ
##ʂ
##∂
##˃
##●
##▪
##х
##д
##у
##υ
##ю
##├
##ﬀ
##¾
##≡
##∥
##า
##ว
##ɣ
##½
##ꞌ
##£
##ф
##ɵ
##ʃ
##＜
##ˆ
##➝
##□
##к
##↿
##∧
##ч
##ª
##⧹
##﹥
##ə
##΍
##⊟
##¦
##∏
##⇓
##ð
##ш
##ϒ
##≒
##᾿
##⊠
##ξ
##ϖ
##⋙
##▵
##∅
##з
##я
##ˮ
##ⁱ
##⧧
##¤
##⇒
##ʏ
##п
##⬜
##♦
##г
##ɔ
##ŋ
##∫
##ǀ
##ˉ
##ℳ
##ː
##⇋
##﹤
##ﬃ
##∷
##ɪ
##ʒ
##∪
##⊣
##⊿
##↘
##≃
##क
##ल
##ी
##ɒ
##⿿
##ⅸ
##║
##ɚ
##≷
##ʘ
##ل
##ĸ
##˂
##ʹ
##ⅴ
##꞉
##￠
##ﬅ
##ҫ
##ᅰ
##ᆨ
##⨪
##᾽
##⋮
##ㆍ
##ͻ
##⅓
##≳
##ⅷ
##∴
##ɨ
##һ
##ᅬ
##ᆪ
##đ
##ߝ
##⊗
##ࢧ
##ƒ
##∟
##﹢
##⇔
##₺
##ʰ
##⪢
##ʼ
##≺
##⩒
##℞
##⬰
##⟶
##￢
##ﾀ
##ﾓ
##↗
##⑩
##ر
##و
##ت
##✕
##ј
##ȥ
##΃
##ϑ
##⋝
##ℤ
##ʊ
##ｱ
##∽
##ℇ
##ｇ
##ϰ
##∇
##𝐑
##♭
##▿
##ⅹ
##ℝ
##𝑁
##𝑀
##₣
##①
##ₓ
##ᵧ
##ℒ
##★
##𝜅
##⌣
##ｐ
##ѵ
##｜
##ᵦ
##〓
##ʎ
##✓
##ⅶ
##ˇ
##ⓡ
##ƴ
##𝑐
##𝑟
##𝑖
##𝑡
##ͳ
##ｵ
##⋆
##⇿
##ѱ
##อ
##ง
##ᴍ
##ƙ
##ℕ
##ᴐ
##☺
##ʔ
##ħ
##ɹ
##∠
##␣
##ɓ
##⎯
##˭
##ा
##त
##ญ
##ใ
##ต
##บ
##⪡
##ɤ
##ก
##໿
##◯
##≊
##ʷ
##ȼ
##⧸
##ⅻ
##￥
##ж
##ƭ
##ϐ
##℧
##ᴋ
##ʾ
##ₘ
##ᵢ
##ₙ
##΀
##＾
##ɷ
##ᇞ
##▒
##ѕ
##④
##≿
##ͱ
##■
##ᅟ
##⊙
##қ
##⟂
##ᴓ
##⋘
##˄
##№
##ⱶ
##ᵒ
##𝛽
##ᴽ
##ᆲ
##ⅺ
##┛
##˘
##ʁ
##⇄
##ミ
##カ
##ҡ
##ᅡ
##ᆫ
##ᄌ
##ᆯ
##ホ
##⋜
##ش
##ا
##ف
##ⱪ
##ｉ
##ｖ
##▓
##⎔
##⩿
##ℏ
##ɾ
##⇆
##⬽
##メ
##リ
##ㅣ
##③
##ƞ
##ɐ
##ʋ
##⇑
##ɱ
##⌝
##ǂ
##ᅳ
##ᆼ
##ᴪ
##ӏ
##𝑓
##𝑒
##𝑛
##𝑎
##𝑜
##㎍
##➞
##ǁ
##ⓒ
##𝒯
##℗
##ϭ
##≻
##✠
##ѳ
##ɩ
##แ
##ล
##ะ
##ส
##ข
##ภ
##พ
##ย
##ร
##น
##ป
##เ
##ท
##ศ
##ไ
##ү
##♯
##⋄
##≑
##℠
##ר
##א
##ש
##י
##ת
##ʌ
##ɯ
##𝐟
##˧
##ᅴ
##ᄇ
##ᄋ
##ᅲ
##ᅱ
##ᴏ
##ӿ
##ᵝ
##⍺
##⇐
##ˑ
##ｍ
##⊆
##₦
##꞊
##▴
##ـ
##⌢
##↙
##⎼
##⅔
##ケ
##ヒ
##𝑑
##₵
##￼
##ɖ
##⪆
##ҝ
##ᵗ
##ー
##ル
##⧁
##ϲ
##ʉ
##ℱ
##ฟ
##₩
##♪
##ti
##er
th
##on
##en
##es
##ed
##in
in
the
##al
an
of
##at
##or
##as
##an
##ro
and
##tion
##ic
##it
##ar
##is
##ent
##re
##ec
##el
to
##ing
##ation
##ul
##ol
##om
##os
##et
##ur
##ac
##ith
##ati
with
##us
##id
##ve
##ly
##th
##ter
##le
##ere
pro
##ig
##tr
re
con
##uc
##em
for
##ated
##ess
was
as
##um
##if
##oc
##am
##il
is
##un
##ts
##op
ex
##ow
##ut
##od
##tic
st
##ell
##ce
##ents
were
##im
##og
ac
res
##ion
##ir
on
##ity
##ag
##ev
##ot
al
that
be
##ph
##ys
##di
ch
com
##ate
by
##ab
pati
##ical
##ase
##ain
##rom
##ant
wh
or
##ib
cell
##ap
##ment
su
dis
##ad
##ine
##ep
pr
patients
im
##tin
##ect
##ff
##pl
##ers
tr
inc
ad
##tiv
we
at
##iv
##igh
##yp
##ud
##ay
are
this
ne
en
##ign
##te
sh
##ure
##ence
##qu
##ous
##ress
##ific
from
rec
us
un
comp
##ial
##orm
sp
inf
##tive
##duc
##ia
exp
##evel
##iz
##ular
per
##ations
##ort
##ans
eff
##ch
##ens
tre
gro
##ear
ass
##ons
sign
##ary
di
##tor
cl
##fer
##pp
##ath
##oth
##anc
##olog
##ore
ph
##up
pre
cells
##reas
##ip
##enti
##ely
##bs
##est
gen
##oun
##ese
##ge
##ting
##ym
not
de
##ug
met
ha
these
##erm
resp
dif
##ost
ev
pl
bet
##st
cont
##ies
##ist
par
rel
car
activ
high
af
##ding
imp
trans
signific
##ich
##ression
inter
group
treat
##yl
##ative
str
##ose
significant
reg
##iti
##der
rep
after
##ection
##ver
##osis
##ance
##ast
differ
##one
co
sur
inv
pres
anti
resul
stud
have
##ally
ar
treatment
##enc
##rol
mic
##ra
me
ab
##tein
##age
which
##een
study
dise
##ction
show
am
level
all
##oci
##erap
hyp
det
##atin
cor
##cl
no
##reased
##ved
##yn
##vi
##ects
cons
##ases
##ong
##ue
##and
##ator
bl
##all
le
##ox
##end
##ther
than
##ever
spec
##ide
mod
##oll
##able
##ive
may
##ound
ag
##yt
anal
associ
10
##hib
##ween
ca
between
int
protein
##ected
induc
##unction
##ight
##mun
##ari
med
but
##ech
##entr
fac
##ros
ind
clin
pos
been
##ach
tw
##cr
##yst
has
tum
compar
app
it
##ogen
##ted
sc
disease
dur
##ism
control
##ulation
##ood
##ome
##our
dec
##udi
##na
##ater
##ugh
##agn
##evelop
he
##so
##ang
ser
##ates
can
se
studi
develop
inhib
clinical
##ri
expression
##gg
##ak
##form
##ual
mon
##tions
both
red
year
also
respons
##ating
sub
##ological
path
therap
##iss
##gen
##atic
results
there
##tim
gl
had
man
two
more
low
function
tumor
##per
immun
##alu
##ility
during
dep
canc
##pt
##ized
associated
bi
bas
increased
levels
##ree
##ied
##uld
##ill
##ormal
ap
end
syn
reduc
##ob
factor
fl
##ass
dr
##ective
##oma
des
##acter
obs
syst
##amm
##atory
##urr
##ined
##ub
sugg
##ole
present
incl
##act
activity
using
##ew
typ
conc
##ays
##cess
##oid
diagn
cancer
infl
el
##br
their
suc
##ures
how
meth
##ond
20
vari
##inding
##etic
significantly
##ysis
##ron
##out
system
oc
##plic
foll
includ
tim
under
one
##mon
induced
es
id
other
##esis
ep
##ium
intr
hum
used
acc
follow
##ition
dat
produc
non
effects
##ery
em
ins
obser
##ane
found
form
##dition
def
effect
##rease
inhibit
##ential
compared
studies
##ven
##ult
##eth
prog
its
showed
cases
##raph
##ct
meas
over
##ail
rem
pot
##ectiv
dem
##tig
out
##asm
report
##ild
##ici
##echan
however
patient
caus
contr
##cin
up
##ained
most
sim
exam
##usion
##oph
hyper
##eptor
data
mechan
mal
##ite
ris
use
##itive
evalu
##ors
blood
##ile
indic
##tal
tiss
##onstr
##ute
ob
##ently
##ograph
##entif
##inal
min
neu
##rop
normal
concentr
human
sm
br
our
##arg
determ
inj
surg
ra
##ish
receptor
perform
my
12
##estig
investig
supp
only
specific
cr
analysis
heal
sam
##idence
pol
sec
ma
##asc
##ination
peri
identif
well
##roph
##ren
time
##vid
##ions
##ization
rat
occ
role
##yd
model
##ency
response
years
therapy
import
cyt
##ities
risk
00
when
##omy
##ard
##ology
il
different
such
acid
##tern
corre
##als
mul
into
##own
##ectively
char
##ok
observed
infection
chang
type
##ark
drug
ox
mechanism
invol
exper
mg
##och
subs
post
##ible
medi
demonstr
##osph
##view
##ments
health
suggest
grow
three
##ov
##action
##ne
##uct
##ution
method
qu
age
##ants
##ough
development
assess
adm
##ik
higher
##til
col
##ft
##ior
##erg
##ement
cd
fr
character
fur
loc
ol
sel
##ten
impro
gene
##ace
##ences
##ature
##emia
mice
##tid
op
groups
micro
new
##lex
fir
##ord
##fore
##arly
changes
treated
cardi
mol
inflamm
##umb
##ange
month
##cop
##av
test
aff
related
addition
##ulated
##iqu
mus
##ines
##ability
increase
who
partic
##ascular
##ured
prim
gener
##ymph
fib
##endent
mut
##ucle
disc
finding
first
##ks
rate
##ple
appro
lymph
review
hem
term
kn
##itis
19
##ful
##iver
##cle
sens
plasm
arter
based
pred
##ould
vir
sym
child
##osed
##rough
important
##ix
cal
those
case
po
gr
growth
##res
del
stim
tissue
antib
##tical
mm
fe
correl
##ital
diagnosis
##aining
15
mean
##etr
radi
mem
##ocyt
##gr
##pha
##ptom
through
##vers
serum
molec
hep
les
##ural
##gf
##ade
bec
potential
less
sever
performed
##requ
comb
##air
##ardi
factors
sev
could
##otic
process
##over
ii
prom
lower
numb
##inis
##tit
##abol
##ains
##ody
respectively
##ived
conf
##urs
main
long
including
rats
##crib
##ock
##ung
chem
wee
er
findings
subj
ren
frequ
prol
adminis
total
reve
poss
##omen
##tens
simil
##xim
phosph
11
without
some
lik
chron
common
##erative
reported
multi
30
##ether
##ps
##use
##echn
vit
decreased
symptom
cy
dose
days
metabol
##ulin
mark
gre
reveal
reduced
resist
where
ps
months
##ited
##ography
##ize
##por
##ages
aut
plasma
##ider
techn
val
##ental
extr
##tained
did
##kin
##vious
within
struct
acute
positive
requ
##orph
14
chronic
##ival
##abl
##drom
while
liver
dna
among
##ef
hist
##its
##tration
os
early
##ack
pathw
abs
syndrom
phys
##ydro
##eu
period
number
##fl
consider
describ
##eter
brain
similar
indi
prob
surv
##istic
##zym
ang
lip
##eration
press
##erv
primary
##otyp
alth
13
##tis
although
##ues
flu
prot
##equ
25
##led
evidence
activation
maj
lim
major
alpha
##arge
do
cap
##iter
due
carcin
second
bone
day
children
##are
nec
experim
previous
##ex
50
compl
beta
ele
calc
coll
mr
pop
if
four
##arget
##oh
should
##lyc
further
nucle
initi
##gan
target
they
##ressed
ml
hear
injur
##ically
##med
wor
pat
24
ret
increas
revealed
small
18
##ory
05
renal
##ced
##crip
##ily
presence
dependent
signal
each
complex
lead
enh
prev
ben
surgery
##und
pul
##otherap
##tivity
##earch
##aneous
und
av
dire
kg
##vention
##opath
binding
##urrent
following
##oles
proteins
identified
##eutic
syndrome
lung
women
##onal
##opl
##rh
##ither
sol
##aging
anim
##eng
outc
pressure
ul
##elial
sequ
so
sugges
##ds
enzym
##ogenesis
complic
appear
dys
care
demonstrated
##ocytes
##oss
##ativ
##ty
##ished
class
gluc
studied
##opt
old
concentrations
##osp
fail
##int
##tered
##uss
synth
##ax
##ational
mechanisms
16
##ologic
##ake
##ric
##ause
inflammatory
phen
diab
predic
##af
vol
measured
##ise
##vement
several
##tric
approach
cult
subjects
##ness
##ately
##omes
rece
95
est
genes
##ms
need
individ
again
mo
survival
isol
neur
neg
therapeutic
mat
##otherapy
concentration
influ
##ellular
##ha
##plant
lesions
techniqu
membr
apopt
##ateral
##atal
##acy
symptoms
sl
oper
fem
cle
##asis
##anced
##ified
left
regul
17
individual
##cs
metast
developed
##ening
occurr
neuro
##ocy
##ores
before
ov
sing
cir
##ogn
ur
local
##tan
sus
adv
##ites
organ
complet
##zed
effective
##entric
lab
injury
his
mit
muc
severe
##ann
pe
##ins
investigated
pain
prov
##ocardi
##eral
kin
because
differences
expl
100
##ples
tumors
diseases
against
contrib
tes
##emic
##ale
requir
heart
prolif
unders
stress
provid
virus
##ditions
##ality
muscle
vis
obtained
##ety
involved
hydro
thus
either
conditions
aim
##amin
pers
valu
vitro
loss
single
vs
here
intra
01
##tory
abn
der
##monary
production
line
mass
pattern
about
examined
discuss
##par
molecular
##ogenic
weeks
##old
transcrip
ct
##iven
surgical
analy
##ostic
##tinal
differenti
##reg
##ateg
##eptid
rati
shown
hosp
##atis
##yro
whether
##operative
controls
administration
##amine
40
mac
##ink
prop
##roscop
##amic
abnormal
mediated
##ication
many
ext
multiple
evaluated
##ice
sep
200
various
inhibition
resistance
known
immune
##trib
sin
##osure
##erc
concl
cere
##hip
flow
lif
fam
tox
will
weight
manag
measure
bacter
detected
determined
surf
##uk
ir
##ick
##bl
genetic
##arm
##cep
rele
large
responses
range
body
whereas
##omas
angi
possible
##odies
##vir
exc
cardiac
formation
functional
vascular
reac
region
trial
proced
##ylation
research
insulin
death
deg
nov
diff
rh
hypoth
##elet
##oxic
chrom
##icient
imaging
tem
greater
##cent
cause
tra
oxid
##romb
negative
confir
free
##ties
##ving
determine
pulmonary
##atively
work
values
relations
##yth
viv
ve
malign
##gn
beha
##ross
population
reduction
direct
pur
caused
sal
dam
carcinoma
elev
001
any
21
samples
same
##iciency
ci
vivo
decrease
secre
characteristic
apoptosis
##ochem
behavi
coun
hospital
isch
recent
six
provide
##sp
##iel
membrane
cycl
included
##ification
##ules
##orb
presented
inform
hypertens
##ists
phase
##les
60
##astic
##uth
like
relationship
hel
circ
polym
##ours
##ind
particular
breas
species
stage
##rosis
establ
block
##ych
ventric
therefore
gas
contrast
cm
oste
##itivity
##oses
prof
breast
##ram
association
aden
##inant
animals
management
exposure
##acellular
drugs
vi
stand
her
##yroid
part
##atures
failure
##ually
signaling
div
##ancy
##uted
##ensity
##tain
five
##onic
life
##olic
stat
##terior
current
recom
pathway
cellular
##az
##ressive
quan
dom
##app
centr
pregn
qual
rap
tub
novel
right
##ission
glucose
##truc
mort
thromb
ratio
nod
##ised
##aps
##ength
foc
param
mrna
leuk
rates
success
ach
##ude
proper
proliferation
##etes
##ire
result
artery
gu
considered
volum
##imens
repres
adj
##ances
surface
difference
##orders
##nal
compon
combination
super
elect
epith
##omic
endoth
complications
ec
22
ro
##ably
##ectomy
consist
ms
contin
##ops
particip
mortality
previously
indep
gra
change
da
support
skin
assessed
disorders
increasing
##lement
receptors
regulation
##ygen
indicate
strateg
invas
avail
transcription
impair
morph
##inary
##yr
##ull
##ometr
##andom
healthy
##roc
##bral
panc
active
very
methods
sch
kinase
##ynamic
equ
tissues
described
diet
strong
hc
alter
men
random
##eters
enzyme
lo
set
prost
##actic
##otype
liter
stimul
injection
##plication
being
conduc
examination
rare
analys
mir
male
##tial
##nf
##opro
pap
effic
features
information
general
horm
medical
pub
agents
##ording
##omal
pd
short
##ocyte
##ption
inflammation
nit
##iological
inhibitor
toxic
##omp
##itor
rapid
##tine
isolated
##verse
##ographic
cs
peptid
diabetes
progn
cat
##erve
followed
area
diagnostic
cytok
23
release
##ule
oral
play
000
expressed
amin
##ns
myocardi
atten
##viron
assay
damage
incidence
##ian
link
often
estim
identify
fat
characterized
##amp
required
size
given
##therm
periph
pharm
coron
benef
##10
transplant
site
types
##ision
##ae
##ient
poor
distrib
##ondr
mater
evaluate
enc
experi
##orts
central
derived
analyzed
design
cent
might
compound
literature
glyc
##estinal
##fusion
##ning
correlation
kid
##ially
##ield
via
antibodies
ultr
hiv
##roduc
##row
##function
lig
received
##ouse
frequency
hom
kidne
overall
##ves
efficacy
##tib
vac
models
pc
##pec
adh
standard
statis
volume
##rogen
down
nm
resid
improved
##els
##itu
coronary
correlated
index
sw
##ochondr
value
progression
magn
seen
enhanced
poly
##iving
outcome
inhibited
sex
##terol
sensitivity
recogn
achi
##ner
##eding
##tif
useful
carb
quality
mutations
att
investigate
ventricular
underw
lipid
highly
##actions
##ended
##of
artic
##ward
allow
peripheral
pa
##inc
prec
systemic
produced
psych
antibody
order
##gl
thir
##order
technique
phosphor
parameters
exhib
recover
condition
saf
even
hypertension
available
evaluation
##cept
##thermore
furthermore
elevated
mitochondr
##igr
then
##cler
##arc
##vironment
chemotherapy
antigen
28
experimental
##ones
bil
proble
##iratory
underwent
status
tak
##iat
since
oxygen
state
##ke
##oplasm
stimulation
cours
water
nerve
subsequ
family
initial
orig
##ides
##red
epid
##try
nor
vers
ability
tested
lines
##tanding
marked
##eric
##agon
percent
structure
accum
maxim
mar
improve
mel
scre
eth
##tegr
preval
adult
fet
inhibitors
better
pathways
complete
sk
occurred
dysfunction
acet
ke
##olution
heter
properties
combined
##oscop
pharmac
indicated
##ovascular
understanding
##lor
##ators
synthesis
ess
activated
35
colon
confirmed
ant
resulted
characteristics
##atitis
infected
##lying
##ma
##tex
asp
sites
continu
affected
cri
##till
clear
made
##ising
containing
26
outcomes
fluid
week
aver
macroph
suggested
##ulations
reaction
independent
differentiation
according
elec
calcium
##oster
focus
interv
demonstrate
agg
##tre
##oral
tnf
##ortic
pancre
##ergic
80
prevent
##line
##go
know
##ount
action
metabolic
##mit
ultras
endothelial
##estion
add
individuals
metabolism
##ochemical
dist
trials
suggesting
##ytic
publ
secondary
influence
##otoxic
activities
infections
cre
##itation
ver
air
female
mouse
chall
recently
likely
##otor
bel
##ont
monitor
history
##set
##rine
malignant
ax
integr
migr
##ulf
tol
##medi
##utaneous
diagnosed
rna
27
them
hr
arterial
##ands
detection
content
##olar
plat
lesion
amino
diss
myocardial
side
##dom
promo
##uble
hepatic
kidney
gastric
ic
successful
##osition
least
head
##eline
suggests
cerebral
##ust
##iotic
approxim
induction
cys
cross
ey
##rolog
ed
neurons
##ecting
32
45
48
##urn
increases
median
events
established
hours
##pr
##oxid
auth
##pose
discussed
few
emerg
biops
##12
90
still
##dl
environment
##izing
electr
##amma
##ious
nat
glut
moder
observ
mes
alone
myel
course
espec
##eved
assessment
disorder
especially
##opathy
##olesterol
larg
onset
pathogenesis
relative
processes
remains
desp
postoperative
iv
##ibility
repe
##utes
despite
##tically
optim
mid
sod
commun
procedure
accur
bm
extens
refer
##ison
##tle
##agen
##ogenous
##da
##thr
##ided
##ledge
doses
##oung
young
cer
##obl
implic
adren
biological
na
key
##iting
carri
antagon
##enced
record
auto
36
epithelial
knowledge
##pa
suff
limited
distribution
##omer
minim
additional
essential
29
##ters
fibro
hepat
##oids
##resp
cur
##esth
respiratory
interaction
pregnancy
practic
eight
dop
##ergy
sensitive
areas
##ogene
##art
##ber
good
quantit
##phal
ill
administered
##asia
represent
33
bre
##ea
density
average
et
stem
70
duration
approximately
impact
resistant
iii
recurr
intervention
lack
performance
##ogl
systems
functions
prote
visual
ster
necess
##ene
prepar
absence
techniques
atr
seg
##idity
wall
self
##orrh
tests
length
methyl
hydrox
sequence
gast
##ying
##ca
prior
prevalence
refl
labor
##cence
would
culture
unc
secretion
host
##adi
versus
involvement
##rem
ven
##abil
times
##de
strains
##uture
nuclear
##ta
dev
microscop
cycle
moreover
plac
baseline
analyses
##venous
causes
##plied
gamma
critical
hal
pcr
##ensive
markers
31
##coh
criter
vas
##lation
physical
199
seem
##occ
##trans
cardiovascular
eryth
relev
##oprotein
medic
ref
gran
recomm
daily
platelet
defined
cop
chromos
##rees
conducted
chol
37
##ophil
repair
diffic
altern
thyroid
upt
urinary
does
##oint
improvement
cholesterol
fil
obj
hormone
##iatric
lat
viral
underlying
she
adul
##osa
tom
##asts
distin
toler
##ayed
include
diabetic
fin
intracellular
regions
describe
resulting
uptake
##nas
fold
##ulating
sum
34
transform
chann
off
displ
occur
origin
##entially
degrees
seven
alcoh
controlled
abnormalities
nerv
basis
trig
particularly
light
compounds
resection
75
sle
contribute
neurop
score
chain
##neum
##ropri
biom
histological
##rin
reli
net
util
##dominal
##ams
anterior
manif
consequ
promot
spinal
mitochondrial
tog
affect
hand
fract
doc
together
experiments
patterns
section
transfer
##read
dim
degree
frequently
##active
bar
##ema
grade
transp
depend
mutation
capac
pig
strategies
te
temper
neurolog
separ
hy
infusion
##trum
##ocl
place
authors
##ii
regulated
##ids
oxidative
importance
vess
help
##rosp
applied
adverse
detect
lit
peptide
mri
##orption
##ols
##bry
##oz
ifn
##kn
##53
##ales
mc
##oper
##inetic
surve
##tral
02
##umin
##ture
conclusion
##round
##ining
##grad
persist
leading
##ces
later
hb
##oy
haem
interactions
molecules
recovery
peak
##illary
criteria
comparison
rad
future
##50
##rophy
##ceptib
##itone
##enting
bacterial
##eness
accumulation
##anol
cd4
tumour
mix
##ronch
participants
bir
pneum
##11
reduce
hs
##icial
##ressing
abdominal
sour
induce
consistent
susceptib
hemat
infar
##uff
##utr
fas
components
regression
smok
intravenous
curr
42
traum
stro
question
manifest
metastasis
strain
exerc
energy
##bp
##oglob
38
embry
##immun
##ices
provides
nf
selected
application
ear
ischemia
underst
great
prognosis
interfer
stimulated
transplantation
##otid
##ophag
adults
##ulate
ns
dog
ng
microm
##ier
obstruc
phosphorylation
atp
polymorph
perm
melan
fraction
##oin
field
severity
cas
coh
program
clinically
##itary
deficiency
undergo
##acr
sodium
toxicity
subsequent
##ling
pathological
##adder
series
intestinal
##ets
##arb
##isting
prostate
##enic
recurrence
article
selective
pancreatic
neph
sample
susp
collected
spont
step
taken
##ropriate
measurements
gastro
capacity
spontaneous
arr
appears
phot
##ove
##cc
upon
adhes
##urb
linked
adap
##other
##ocial
agent
top
food
don
##esia
##ermal
reviewed
##ored
ble
##ork
advanced
##00
##ather
##clerosis
##idine
wild
ech
##ococc
bronch
mamm
exposed
animal
toward
##ipp
pm
late
frag
antibiotic
##erex
macrophages
fetal
mainly
##ense
respond
propor
##sh
convention
treatments
stroke
acids
neut
terminal
##ivers
concer
corresp
load
rang
procedures
##omat
structures
scale
##yg
alterations
achieved
##amide
pt
cerv
though
necessary
cytotoxic
##rup
##uded
home
##isms
##ables
motor
##oxia
##rix
##acts
mt
back
##ethyl
biopsy
aged
usually
screening
go
open
substr
proposed
mild
distinct
interval
revers
measures
##ectal
tract
ovari
adi
dynamic
paper
attenu
asth
bal
pi
##rophil
summ
##olip
signs
situ
inh
tomography
necrosis
##arding
appar
responsible
point
spect
unkn
fluores
43
collagen
require
conventional
sil
forms
unknown
lact
invasive
transport
##hydro
##erexp
difficult
antic
extracellular
ampl
laboratory
##uv
##ional
cogn
radiation
operation
ht
cytokines
exercise
acqu
##osin
##eti
basal
excl
##ered
position
structural
material
overexp
provided
##encing
physiological
ather
glob
facil
behavior
statistically
##ivery
purpose
magnetic
sulf
domain
practice
upp
sn
delivery
tempor
natural
hypothesis
##phyl
degrad
matrix
needed
transm
##ame
##ohist
##enty
indicating
restric
extent
pp
prolong
##iology
third
ig
pg
chlor
component
moderate
migration
##onding
morb
aortic
mutant
scores
cervical
##eling
##ave
prosp
partial
relatively
##ori
metastatic
##aff
consum
little
ped
reports
upper
##uter
##ched
dig
internal
testing
fibrosis
regarding
39
polymer
immunohist
whole
##onia
thick
led
cereb
posterior
neuronal
thor
occurs
exhibited
iso
remained
reactive
color
alcohol
igg
much
must
phenotype
experience
ulc
now
infil
repl
inhibitory
vitamin
cp
##elium
recomb
reson
last
prevention
bp
appropriate
infants
lys
enzymes
star
##ophys
quantitative
directly
encod
act
onc
medium
marrow
hl
##gin
impaired
frequent
72
##arr
##otypes
retin
lap
temperature
sem
##gens
od
##aryn
sd
##ythm
extrem
enhanc
lateral
recurrent
enter
depression
44
cancers
slow
##put
##ld
paras
iron
ure
altered
relevant
##rect
##16
##inated
##bo
rab
invasion
csf
remov
search
ak
##13
able
variety
transl
half
emb
norm
stable
agon
##olytic
##utive
wid
examine
anat
proportion
alb
plays
regard
dil
fibrobl
ovarian
cord
resonance
65
carried
products
##activ
monitoring
##ocar
populations
implant
approaches
best
ca2
##cine
03
across
continuous
##istry
divers
##ux
safety
occl
nan
setting
##otens
substan
ta
neon
##oman
sci
ischemic
ten
differential
##estern
specimens
famil
##eta
46
##aemia
catal
predom
netw
lymphocytes
##mediate
nine
problems
nutr
hp
generation
cand
real
fer
55
##unc
identification
fatty
investigation
##thritis
chemical
birth
tgf
##inations
tend
decreas
alternative
lay
##fac
recorded
##rot
las
specificity
##aine
regulatory
infarction
egf
yet
##odynamic
stages
therapies
##eal
currently
certain
special
maximum
##arily
progressive
having
hyd
p53
staining
roles
along
wide
social
benign
anesth
##eletal
allel
##ectin
dogs
hypoxia
electro
western
##way
##itoneal
constit
randomized
##utions
rs
##onucle
developing
bacteria
##icians
pk
commonly
finally
cho
##inity
##cutaneous
##ively
neutrophil
##osing
nas
hepatitis
bro
bladder
vaccin
nervous
amount
##ytes
myc
52
candid
bilateral
##ending
introduc
##orn
rt
cod
##ics
##se
seiz
bio
valid
##ique
computed
marker
prefer
99
map
67
##hyd
retrosp
hemorrh
##oxy
conn
congen
lapa
##onin
##tially
##ople
morbidity
joint
double
reach
##ibr
obes
47
endoscop
##emb
establish
grad
access
41
##oxide
##ompan
leukemia
manner
highest
venous
rather
reproduc
cad
empl
obesity
accompan
objective
means
md
pow
##ired
ss
##tility
autoimmun
stre
##enz
ty
restor
bur
##imen
cis
dl
older
analog
images
cultured
##ocal
##ie
##arin
bleeding
fix
diam
##osal
##ights
humans
##leu
198
##ened
strategy
modified
nurs
cognitive
dimens
involving
lps
##osine
educ
majority
eti
suppress
cav
potentially
calculated
sleep
##14
above
guid
##tively
squ
microgr
##tile
tas
56
sa
infer
##jection
targets
ter
replac
estimated
opp
##ometry
protoc
docum
##anial
world
cultures
dm
leads
cost
##ocarcin
##he
##uration
deficient
remain
ion
promoter
event
subun
##o2
##ze
adhesion
##uit
assays
lymphoma
##raw
solution
##osterone
gh
pla
04
##izes
twenty
facilit
metastases
ros
##ench
intake
conj
endogenous
##que
segment
significance
cf
problem
potent
training
iss
##obacter
conclude
incub
cath
asc
fav
detail
epile
receiving
serv
removal
strongly
electron
asthma
another
pse
spl
exist
highl
produce
##eg
males
hypert
protective
white
simult
proxim
##encies
urine
soft
simultaneous
cytokine
##esized
divided
cortex
##ering
##otrop
defects
mak
54
sinus
##elling
##irus
asym
sequences
##ella
##hood
percentage
become
complement
degen
specif
challeng
por
females
biochemical
log
##lr
pseud
view
ultrasound
ves
emph
noted
##radi
inn
neurological
excre
acetyl
shows
##plasia
##oxin
alk
woman
##anes
full
epis
prognostic
##sis
##otide
##ocrine
##athy
graft
placebo
maternal
intensity
rabb
53
tb
##brid
atheros
##uring
##enge
experiment
##olysis
##erous
radical
probably
64
unique
##ophage
impairment
interven
measurement
49
neck
##ank
igf
terms
degradation
reper
bound
##ula
prolonged
antioxid
##acted
##pase
granul
atrial
blot
##ias
distal
olig
uter
variables
const
imm
attention
pathology
reactions
states
histopath
##onomic
corresponding
cortic
generally
##leukin
wound
##den
incor
##osomal
linear
interleukin
simple
##ci
markedly
##ancies
##angi
ana
##itude
pretre
gest
defin
##cted
sr
##upl
pair
aimed
cyst
variation
lv
vegf
immunos
people
congenital
confirm
discover
##urys
profile
evolution
slight
recr
pac
##most
located
##eled
challenge
##apl
completely
cann
##roscopic
poin
##anning
##ternal
##ercul
weak
eye
presentation
genome
##rel
longer
compare
benefit
published
tel
excess
plus
aggreg
##ogram
##ident
cohort
##igen
##ope
coli
episod
58
du
reas
strength
mmp
57
microb
appeared
##ophageal
pathophys
##atives
pal
##opic
reconstr
designed
specifically
##ecutive
##intestinal
call
62
document
quantif
subt
fed
rapidly
generated
cb
occurrence
##phosph
microscopy
gli
interp
hg
gastrointestinal
##ulatory
larger
pet
applic
vessels
##17
environmental
amyl
trigg
delayed
##ina
##ars
##eff
63
vein
neural
##etry
##ify
chromosome
num
##enchym
##15
glomer
gp
##argeting
disturb
predominant
complication
##ialysis
clus
rou
relaps
##acch
##alpha
##erved
interventions
##cular
rib
supplement
avoid
heterogene
oxide
affinity
almost
trauma
targeting
##land
limit
##rophic
##uria
optimal
superior
questionna
pb
irradi
mechanical
##arcoma
venti
resolution
posi
promising
seems
minutes
##rotid
undergoing
##icular
fluor
biomark
confidence
progress
##ectiveness
until
sperm
autoimmune
node
survey
incorpor
molecule
cortical
arteries
targeted
##ucid
susceptibility
recombinant
##ocytic
chest
relation
85
##dle
##aged
reconstruc
every
germ
source
thorac
operative
pass
shif
polyp
reducing
subst
##for
ane
repeated
contex
clos
effectiveness
community
##tors
hd
##regulation
adrenal
thym
sten
##enia
##rocytes
vag
elim
plant
prospective
66
airway
68
disrup
employ
deriv
public
protection
successfully
extensive
59
power
profil
cytoplasm
##oglyc
fo
antigens
##20
nature
##ometric
inst
mil
matched
prem
##used
interest
oh
selection
channel
##icle
temporal
51
recognized
cc
##ased
transient
diameter
recip
##ester
aneurys
systematic
##itus
suppression
##son
##ycin
port
gly
adoles
derm
ful
##tum
ds
attem
vaccine
hipp
##ochrom
den
gel
py
bo
##rog
proximal
##atment
##rob
knock
clinic
eng
classification
##orting
tool
##imer
##ostasis
##uls
73
preoperative
aer
nons
widely
antagonist
instit
tubercul
advant
##ients
cos
elucid
past
complexes
yield
gland
eas
smo
pen
rhe
##less
adequ
overexpression
princ
tri
##ape
accompanied
far
uncle
hybrid
##bers
##oblast
##co
possibility
apoptotic
##teen
tyros
##ral
consecutive
isolates
pel
lob
external
ste
echocardi
categ
possib
##ror
unclear
suppressed
predicted
dele
##ream
middle
##vascular
##rs
attrib
coupl
mob
##urine
##gans
skeletal
0001
reperfusion
cox
p2
variable
##ylated
polymerase
typical
observations
##angl
requires
sph
##ret
defect
aspects
memory
throughout
lear
died
##oclonal
substrate
micrograms
ast
##otomy
melanoma
stability
##ocarcinoma
bow
##ione
smooth
gal
barri
replication
clearance
shock
recognition
78
caspase
##18
96
chromat
##mic
intact
arthritis
##ception
serious
injected
cruc
datab
presenting
smoking
elder
##aring
obstruction
akt
induces
##esting
recommended
##tenance
phosphate
disch
##cephal
##ariate
##ozyg
maintenance
consumption
##upp
##lo
orth
turn
tumours
accuracy
angiotens
spe
deep
tc
safe
##iary
context
##tries
##ologous
univers
satis
carbon
morphological
fusion
##stream
kne
statistical
implications
mental
##lycer
ethanol
##ounts
systolic
nk
perfusion
way
angiotensin
nucleus
ker
circulating
##tious
bile
mixed
##ocamp
actin
##itted
hla
dex
monoclonal
spectrum
points
ple
phenomen
adjus
base
##letion
##eli
transmission
##urg
summar
##roup
ldl
##beta
##cles
tolerance
ligand
rot
recommend
occlusion
##cal
##by
##ril
lipoprotein
##olved
retinal
elderly
kill
##ochemistry
americ
rar
comparable
failed
peptides
reference
composition
hydroxy
pneumonia
##ogenetic
##activity
network
excretion
broad
aug
dietary
76
pediatric
##ocation
preven
soci
exer
electroph
persistent
la
##rhythm
defic
vel
##ontin
estrogen
69
##oplastic
74
t2
##let
injuries
numbers
##ector
multiv
ge
acquired
transf
apparent
enti
expected
global
##truct
transcriptional
lep
aw
##fs
solid
hcc
leg
##rate
indicates
unit
hippocamp
fibroblasts
colorectal
ras
##icin
none
manifestations
##ico
earl
regional
medicine
subtyp
transition
constant
fracture
kinetic
adip
fung
##ellar
convers
##ologies
expressing
##ament
rheum
healing
primarily
##ilateral
occurring
##itin
product
77
##oline
##ustr
beneficial
membranes
##acchar
##ways
##ss
members
tyrosine
comm
regen
np
whose
83
##oked
insuff
purified
immuno
account
processing
understood
bowel
eyes
fif
appearance
implicated
cytos
kapp
micros
86
pelv
##itant
##path
##ool
diast
##19
82
pharmacological
camp
##iety
##genic
efficiency
pitu
cyp
basic
substit
##phen
perme
regulate
inactiv
fish
national
saline
radio
##atase
around
inser
##obic
mucosa
eu
tradition
rr
organs
##etric
anx
##oglobin
formed
bcl
maximal
choice
vary
##ges
tlr
steroid
scan
except
center
neonatal
location
promote
##ump
##ectious
thickness
##flu
##ady
flex
whom
space
contact
hypertensive
##itable
mp
aspir
verte
muscles
subsequently
predict
attenuated
experienced
radiotherapy
##ots
concluded
localized
84
##resh
initiation
##rotein
limb
fully
carotid
cx
pituitary
az
interferon
sir
hcv
##omet
88
##uts
minimal
##azole
##aptic
showing
retro
rise
##fts
veloc
numerous
##k1
fluorescence
mis
##orter
##ervation
##opa
soluble
amyloid
replacement
antioxidant
respect
cd8
##ogens
##raz
nutrition
tm
##38
gon
61
spati
liqu
##io
partially
fever
stenosis
##anch
##osyn
signals
amp
fragment
autophag
creatin
92
localization
conver
observation
nasal
pan
##a1
laser
##alian
illness
minor
##opo
##regulated
nitric
cutaneous
accel
ip
accurate
epidem
##acer
cardiomy
predictive
variants
eosin
mening
##aries
##thal
sexual
##ention
##uvant
##thers
caps
79
explore
##hc
immunity
ow
##group
##isation
##iveness
microg
##aline
##err
hf
##iral
trend
m2
represents
##acin
ga
poorly
pretreatment
87
carcinomas
retrospective
infectious
interesting
##to
tuberculosis
reverse
ray
exch
hour
concept
routine
efficient
intern
hemorrhage
near
wt
contrac
channels
##b1
##ococcus
enhance
prevented
cv
lc
residues
cover
refr
read
layer
##operatively
compr
disp
##asty
250
methylation
suspected
thresh
maintained
##alk
morphology
##nt
valve
fractures
implement
neutral
anomal
education
image
h2
##oden
word
93
hip
latter
offer
thought
cystic
fall
assist
focal
##ortun
arrest
##uary
##rolled
countries
fibrin
never
dc
##man
crucial
ratios
protocol
contained
dopamine
genomic
nodes
remod
classified
##ache
71
pyr
endoscopic
##eve
fron
others
ce
questionnaire
donor
stabil
##ats
cirrh
thre
89
##ophosph
precurs
abund
construc
diastolic
##treated
pv
ann
tit
knee
dominant
volun
hm
correct
##ls
break
fa
meta
depart
98
decreases
dos
##fr
elements
genotype
##atid
parall
duct
force
##bal
seizures
mucosal
documented
sufficient
##oring
##ogra
pathogenic
concom
##roscopy
epithelium
ub
developmental
cryst
##ocytosis
regulating
differentiated
clearly
##ings
possibly
94
##oside
##platin
transduc
once
cns
##iaz
profiles
symptomatic
##amous
##tingu
##oglobulin
units
##transfer
close
final
##aper
strom
gangl
arth
eb
additionally
murine
albumin
homeostasis
pregnant
##opathic
completed
prepared
variability
put
ect
##icles
##hg
determination
concomitant
obese
sustained
##zing
gm
glutam
##elines
initially
##avage
core
neoplasm
remaining
admitted
affecting
##enchymal
##fa
neither
egfr
what
##osomes
subunit
relationships
movement
independ
distingu
root
##geal
associations
media
balance
##anth
##iform
subgroup
make
##tase
allows
elevation
immunosupp
inters
transformation
adenocarcinoma
##axis
earlier
sup
##ptomatic
analysed
benz
agonist
catheter
remission
hemodynamic
medication
dimin
97
##omycin
##ovirus
cartil
edema
##infl
understand
dors
macrophage
3h
largely
gi
randomly
gender
untreated
jap
fm
guidelines
##ascul
closely
liquid
carr
investigations
tryp
advances
chromatography
wave
aggressive
arch
odds
##reh
trunc
spread
##thesis
producing
arg
delta
marg
thirty
absorption
ck
growing
aa
##ades
sed
antibiotics
towards
mim
clon
##erated
adequate
##idal
behavioral
##eps
ib
etiology
##ict
##okinetic
emergency
oxidation
irradiation
squamous
##illin
##aryngeal
##agulation
infiltration
atherosclerosis
ts
prophyl
deliver
enhancement
angiogenesis
causing
lam
subcutaneous
parkin
##tp
aberr
fast
##ension
##aria
diffuse
below
angiography
thrombosis
##taining
alg
##veolar
circum
residual
corne
dimensional
compreh
##ives
deletion
students
##oved
om
##ifications
##athyroid
prac
asymptomatic
fund
done
amounts
uns
t1
pyl
aort
cd3
intervals
return
eosinophil
embol
##np
sple
heat
##anine
treating
making
##ticular
tg
##anged
behaviour
##dm
##iologic
degeneration
elic
removed
rb
excell
##onography
feed
##oic
viruses
uncom
##itud
added
gain
periods
##apping
gab
labeled
idi
allele
rup
##inate
##usal
explain
clar
##ticul
ket
feeding
motion
shr
hypertrophy
metabolites
gir
malignancy
smaller
##inflamm
slightly
opi
##coprotein
living
##ecal
task
intermediate
##oe
inhibits
##tract
rich
##iation
agre
sympath
withd
date
express
applications
epileps
stimuli
e2
childhood
tetr
##aces
81
sensory
adjusted
substantial
strept
invers
reconstruction
blocked
consequences
##pass
variant
anxiety
learning
gc
profess
benefits
ald
fibers
fist
employed
mell
dehydro
sepsis
categor
##formation
##ember
##mediately
laparoscopic
providing
##ground
##omatic
excellent
cg
cannot
coeff
instrum
##ompl
mitochondria
##acent
ranged
surge
nucleotide
hpv
mb
counter
affects
##dp
withdraw
immediately
aging
nh
velocity
branch
episodes
##oscopy
mutants
viability
amb
families
incubation
##pler
##yc
indirect
directed
interview
immunore
traditional
physicians
matter
unus
nam
##mitted
isoform
glutath
inducing
##ises
output
princip
feas
##ramm
admission
##aden
nad
##rec
attach
peroxid
intrac
relax
needs
##clin
##elf
personal
arm
##unct
parkinson
junction
mellitus
regimen
highlight
biomarkers
##ring
##ician
sat
consisted
curve
intensive
displayed
rheumat
japan
cytotoxicity
entire
modulation
##pati
fact
phospholip
direction
##uting
##aw
gall
hund
mast
##odil
##phrine
hundred
fu
equal
mode
##erent
inclusion
##crim
bc
vessel
synthetic
computer
contribution
exhibit
assign
compart
inoc
influenz
cisplatin
axis
##dib
125
subject
sequencing
##amus
cartilage
fetus
thoracic
immunoglobulin
delay
blind
independently
wors
##entricular
max
infiltr
facial
mammalian
histologic
ocular
hdl
regis
services
##70
polymorphism
##ocortic
##eck
##eptide
propose
sampl
lh
medial
programm
varied
bypass
existing
alz
glutathione
pelvic
uterine
transpor
femoral
500
vascul
thereby
##organ
encephal
##entical
dynamics
dental
peritoneal
pf
domains
##olin
sera
##emat
lum
effectively
spatial
spleen
synthase
background
reliable
europ
rob
##heimer
barrier
positively
aneurysm
##tc
words
jan
epilepsy
##otypic
elis
autophagy
vul
##acranial
diverse
newly
sclerosis
discrim
atyp
alzheimer
adenosine
university
considerable
thi
hsp
lumb
nr
proved
esophageal
adjuvant
##transferase
find
corticoster
breath
adapt
favor
adjacent
##arv
achieve
##ared
called
allergic
multivariate
comparing
##down
regular
pharmacokinetic
progen
inhibiting
conjug
encoding
##factory
identical
disapp
occup
arrhythm
descrip
bov
presents
became
##umab
##57
##rag
ventilation
hair
antagonists
soil
chin
rest
extended
excision
immunod
##degen
##elin
department
depletion
unl
mmhg
##arged
neurodegen
anesthesia
europe
exchange
120
##oxyl
kda
portal
describes
mineral
circulation
phenomenon
actions
##eds
##ometri
##titis
##atib
similarly
focused
pathophysiology
predominantly
tet
##osite
rarely
enrolled
##otion
##itol
extremely
decline
involves
##aves
tp
##otropic
ing
pathologic
91
mmol
contain
cluster
contributes
##yte
refrac
address
variations
subjected
rev
bmi
##insic
ubiqu
##zation
##rich
mature
plants
opportun
expans
modification
sensiti
dram
##ush
##eless
particles
##ike
reason
pigs
immunohistochemistry
saliv
cavity
sen
mv
relapse
extraction
decision
fit
##esh
truncated
##p1
referred
dramatic
organization
rabbits
detailed
κb
inferior
##ode
unusual
argin
sources
glycoprotein
##otoxin
ace
influenced
suitable
##abs
american
sta
neurot
options
extra
organisms
possess
##erin
##teine
##oints
restricted
##titial
creatinine
fibr
##itch
##ata
salt
polymorphisms
dend
tach
doppler
immunohistochemical
elisa
osteop
mill
##robial
##usive
count
examinations
##oa
gradi
##anding
oil
lang
##onuclear
pool
##ectivity
##arrh
neutrophils
##otr
fd
anemia
##lim
remodeling
mi
##gal
##acks
schiz
coupled
##agland
parallel
capable
sarc
newb
exogenous
sections
ulcer
dementi
susceptible
cut
pylori
measuring
##ivalent
##osens
dyst
cam
preparation
echocardiography
lymphocyte
##omatous
continued
cirrhosis
includes
##ysacchar
##cribed
##rief
##acet
shift
ens
always
synthesized
inhal
ranging
phosphatase
unch
##assium
injections
element
fol
dp
##inflammatory
hypothal
run
resour
histopathological
##1a
feature
organic
fram
issues
##ologists
mn
distr
volunte
immediate
trim
potassium
oct
06
rp
demonstrates
persons
allowed
jun
##term
uv
leth
fill
##25
estr
enrich
idiopathic
illustr
attemp
enl
threat
##ropathy
pathogens
afric
released
simultaneously
superf
parent
concerning
january
##exp
reduces
dissection
glomerular
recovered
##rovers
atrophy
threshold
malignancies
##ietic
cyclic
serve
depending
##erence
##cher
##oidal
##cents
##adiol
##wide
careful
prostagland
detectable
refractory
estimate
dehydrogen
glutamate
determining
##ardia
duoden
##isp
reached
biology
cytoplasmic
controvers
intracranial
ile
##adic
##40
permeability
gs
dementia
analyze
disappear
antimic
unilateral
##ocomp
syndromes
tib
ln
augment
improving
150
correlations
##iasis
twice
bis
##unt
taking
cu
##23
##ocellular
see
anatom
innate
native
##tisol
database
##tra
comprehensive
chond
fixed
spine
##ocaine
biliary
alveolar
endocrine
extract
##amycin
remark
costs
assum
##clc
##3k
changed
zinc
programs
transgenic
##ospor
mas
wr
chinese
blockade
##yle
lamin
complicated
endometri
metal
pic
technology
suppressor
##ochrome
reversed
operated
dialysis
metall
brief
abscess
antimicrobial
heparin
aids
##bb
##epine
##load
atypical
begin
segments
300
extension
##agul
explored
##inking
##ptic
drain
infant
rheumatoid
adolescents
goal
##ements
##ozygous
school
lungs
conserved
algor
risks
##dehyd
agreement
##gs
lactate
example
algorith
embryonic
reactivity
tun
tail
sympathetic
##itory
accept
##ometrial
controlling
beli
hearing
##unding
##ete
##ields
duc
aggregation
influenza
##rotic
gestation
sham
phag
gaba
adipose
tube
##ritic
stimulating
therm
deposition
emphas
##astom
cysts
xen
##ows
emerging
diarrh
stom
hyperplasia
sectional
evoked
##ested
assemb
unf
##we
glycos
biopsies
device
evident
international
promoting
##urally
epidermal
rod
define
facilitate
visc
ld
dual
transfusion
angle
serot
discharge
dorsal
##zard
longitud
##dial
surviv
##opoietic
##alling
monitored
hbv
encoun
sv
lumbar
promin
##orage
withdrawal
preventing
repeat
nico
abol
toxin
##ontal
mostly
expansion
reflect
##ameth
var
interstitial
testosterone
##bil
dehydrogenase
wk
bind
maintain
bovine
recruit
scanning
##atch
hormones
placed
pron
height
ye
chemok
downstream
androgen
##wh
milk
retention
##ertain
amplitude
pancreas
foot
standardi
destruc
c3
distance
##xt
move
extracted
proliferative
polar
tools
pancreatitis
reh
platelets
##alities
ring
derivatives
##clinical
intes
plaque
magnitude
acting
separate
conserv
uncommon
thal
correlate
biosyn
mesenchymal
supported
radiological
forty
abstract
regulates
##icardi
renin
##anded
dox
weighted
hazard
##matic
recipients
##opol
nt
recording
gonad
mediators
obstructive
##lip
##nic
dh
check
depends
bin
diffusion
characterization
pkc
197
arginine
nuclei
hydroly
monocytes
chick
compression
##ophren
psychiatric
face
immunological
hypothesized
##atus
##rocyte
immunodef
unchanged
autoan
restriction
##27
iod
cytochrome
discontin
##ycl
dosage
##wise
##ichia
poll
activator
arteri
veh
traumatic
competi
rv
cycles
younger
logistic
sf
reproductive
increasingly
triglycer
interf
##nis
satisf
agonists
anastom
coord
signalling
ablation
ventricle
neoplastic
subc
translocation
characterize
pathogen
receive
compens
orient
myeloid
volunteers
sti
regeneration
##oxygen
gram
##esterone
dissem
reviews
##oration
##tition
cortisol
penetr
##thern
schizophren
proven
communication
explained
correction
##etal
contraction
united
virul
##uretic
extracts
phenotypes
maturation
candidate
##nia
zone
aorta
chi
absent
##fluores
microgl
lt
##ocys
heterogeneity
adjust
distinguish
interestingly
identifying
deaths
multid
##estions
records
activating
sulfate
modul
kinetics
fractions
display
pulse
fiber
deficits
articles
substance
##dehyde
depth
ages
nearly
##openia
conversion
diminished
lup
aml
dependence
##onate
bul
400
nursing
instability
plastic
sud
regimens
fc
parents
miss
lacking
synerg
##inf
ah
##iciently
tubular
questions
bu
leak
relevance
##opar
attributed
emp
decreasing
contains
##ohyd
implantation
##illation
rout
pros
fatal
sess
decl
db
coding
assigned
initiated
recru
mitral
endothelium
demographic
07
spectrom
epigen
##enin
##atidyl
challenges
recommendations
fragments
orb
vaccination
antis
materials
parad
obtain
##aken
leuc
phenyl
##ni
##ready
##rose
discontinu
##nea
egg
superoxide
stimulus
indications
already
inher
##acerb
frequencies
hif
emotion
exacerb
shape
08
##actin
stromal
bac
undert
colum
vaginal
occas
perfor
heterogeneous
hydrogen
own
plate
enzymatic
rabbit
longitudinal
concern
burden
bodies
acetate
fresh
##idase
premature
aure
donors
coch
interpret
fgf
blocking
synaptic
hepatocellular
composed
ank
excessive
endometrial
psychological
evaluating
rupture
##dr
glucocortic
working
##olds
qualit
polic
optic
varying
##choline
corneal
drainage
itself
precursor
inactivation
hypers
scans
functioning
regulator
##sa
##osus
negatively
##onas
##2a
next
##mp
parasite
μm
anaesth
reticul
introduced
moth
consequence
intrinsic
involve
overl
availability
nonc
escher
rehabil
##opausal
puls
aud
erk
vector
##point
pge
theory
##ifying
impl
aureus
substrates
escherichia
cleavage
bearing
##val
##aemic
disability
##enol
mirnas
vasodil
esophag
item
staphyl
tolerated
intraper
typically
potenti
##90
pigment
##ged
##osity
probe
p38
headache
accep
nitrogen
##osarcoma
suffering
expressions
ips
fasting
##illus
lobe
consisting
insights
artif
antiv
lupus
disruption
medications
diversity
lp
worldwide
histologically
##oar
ligands
mapk
perce
raised
classical
intrav
ba
manip
##isions
sac
##erior
##iction
intestine
hemoglobin
dihydro
microscopic
locus
ester
plan
obvious
bond
putative
ho
##clerotic
requiring
hence
##virus
topical
disturbances
postm
##itals
interc
prominent
precise
belong
advantage
efforts
inducible
frontal
lipids
ads
recruitment
##asone
##oplasty
##rounding
bd
validated
adaptive
glands
##ylate
surrounding
##chron
decomp
preparations
valuable
##avy
proj
##ounced
option
loop
tau
##ani
prelim
subset
true
emission
insufficiency
##phthal
prediction
assessing
##atosis
ige
mda
anatomical
tf
##mc
rank
epigenetic
shorter
inos
nac
cytometry
##oon
incorporation
medull
promotes
commerc
##oblastoma
yeast
original
rc
modulate
fixation
advantages
fing
##80
greatly
radiograph
stomach
##iance
storage
herein
discovery
##ulmonary
antico
predictors
forming
kappab
capillary
##illance
##22
##ypt
##encephal
collection
deterior
protease
issue
##raphy
counts
pronounced
##formations
absol
##atig
##glyc
##patient
equivalent
pent
service
##inv
rectal
colony
secreted
nerves
morphine
gd
##60
tendon
hypoxic
gradient
clinicians
amel
##agic
hospitals
osteopor
iga
musc
preced
mothers
entry
percutaneous
supplementation
##igm
seizure
substances
cit
##itic
pren
heavy
##ysaccharide
bronchial
indices
loading
sampling
3d
electrical
t3
igm
hex
fatig
kidneys
ultrasonography
crp
005
immunodeficiency
histone
coagulation
colitis
##osome
preliminary
existence
##zyme
##gia
##tage
entit
progesterone
keratin
eeg
cry
somat
sul
draw
cyclin
##lam
modifications
oa
##ograft
histamine
behaviors
atpase
limitations
herp
leptin
band
subtypes
o2
hab
rehabilitation
estradiol
vehicle
##dna
synov
##t1
copd
anomalies
gold
pure
ligament
embryos
epit
##orks
surveillance
kinases
beginning
p4
radiographic
estimates
nos
autoantib
psori
combinations
hybridization
reflux
swelling
ureter
neuropathy
phyl
dt
aims
nmol
##ylase
cond
##utin
gestational
activate
portion
perman
eg
##dibular
##rectomy
antitum
excit
sudden
limiting
aberrant
pert
ultim
undertaken
rhythm
##back
introduction
neurologic
##be
lowest
##uch
skill
elimination
sched
driven
bor
##ilities
contents
trach
familial
##sin
neoplasms
alteration
give
serotonin
accoun
spor
##olone
##lu
compartment
translation
##mark
started
##odialysis
quin
lin
glomerul
chromatin
##pan
generalized
effector
##ocular
tachyc
histology
casc
multic
excluded
chromosomal
##ton
phases
um
modalities
patch
reflex
institution
pleural
gsh
##ensus
nsclc
reasons
potentials
live
mononuclear
teeth
attr
insight
myocardium
oxidase
fluorescent
##ocks
postoperatively
minimum
##obil
transduction
persp
stimulate
distress
ethyl
microbial
brom
muscular
septic
insertion
eps
nar
gut
09
pi3k
##ley
motility
vaccines
mycobacter
robust
nc
canal
displac
deform
standardized
abolished
tur
postn
##rod
thyro
steps
transcript
pil
hippocampus
improvements
discovered
adherence
##oresis
take
dendritic
hepatocytes
nurses
tax
cn
buff
fistula
neurodegenerative
prolifer
langu
chloride
hors
knockdown
easily
##hd
adrenergic
splic
phosphatidyl
fewer
bic
##ostatic
fore
osm
movements
relaxation
##ancer
spontaneously
##care
upregulated
pn
incompl
coefficient
hapl
promoted
##azine
dermat
zn
prostaglandin
sca
mu
exce
thin
upregulation
##ques
grafts
parathyroid
stay
integrated
insp
member
transformed
opioid
discre
scin
elucidate
neuropath
##gi
framew
person
recruited
sho
fatigue
ju
absolute
trop
consistently
protect
comparative
##ometh
##ga
##lit
immunofluores
lymphoid
isolation
physician
aspar
##ritis
si
cdna
fungal
##erol
micror
mtor
reversible
malaria
salmon
catenin
dn
##26
workers
leukocyte
preterm
closure
lost
##iosis
wnt
settings
rein
warr
conduction
perceived
papill
dysplasia
##ococcal
colonic
##amethasone
normally
constitu
rejection
termin
bey
##tub
##t3
hypoglyc
generate
##thetic
comprom
considering
##astatin
intraoperative
fox
delivered
supporting
beyond
catalytic
antih
antiviral
nodules
##uron
gb
hematopoietic
fifty
separation
cum
overc
##yroidism
resting
dry
schizophrenia
limits
gap
spectrometry
2000
mer
##21
cul
##times
##idin
##axel
##30
flav
exact
hearts
solutions
##pread
favorable
shap
inner
hormonal
lens
influences
abnormality
subunits
wides
gla
##going
##eed
widespread
motif
##king
mhc
consequently
##otherapeutic
implementation
catech
utility
mediate
lethal
retrospectively
decades
##ropl
encountered
cure
##cap
##fp
responsive
dy
fibrillation
depos
supports
##yster
##ubicin
proinflammatory
resolved
centers
elicited
glioma
steady
2d
amph
##era
##atif
exists
gn
seas
##ibri
maintaining
##rolif
cla
##otal
planning
walk
##oplasia
adop
##blast
cerebellar
tsh
surfaces
conv
south
regardless
hippocampal
correspond
uncertain
##inea
cham
cardiomyopathy
drinking
integrity
lev
entity
##rox
fals
adaptation
μg
starting
##esophageal
##igible
curves
sarcoma
carcinogenesis
tn
importantly
december
anticancer
1β
err
presum
genotypes
rig
theore
##65
healthcare
##time
##romy
##elled
##usc
error
utilization
aid
##apse
supr
distributed
##ought
copper
pump
##udes
replic
scler
language
probability
biosynthesis
spectroscopy
smokers
clones
##omorph
ongoing
abundant
nutritional
responsiveness
destruction
mor
##uncture
abuse
comorb
retard
electroc
irr
##ica
superficial
ophthal
selectively
orally
##rex
ebv
##theless
pall
ectopic
conservative
##29
nevertheless
summary
##flow
tension
##get
effusion
carbohyd
reporting
dissoci
t4
substantially
herpes
sought
##ticles
acts
##ette
outs
scientif
##itions
cats
ni
##ulative
amplification
trip
phenotypic
synergistic
##fold
vital
classes
mcf
tachycardia
1000
column
sometimes
mammary
scar
##r1
economic
antitumor
fibroblast
vertebral
##gar
placental
prevalent
restored
##28
predisp
##ners
assisted
assembly
permanent
##rospinal
epidemiological
##oyl
dia
responded
detecting
##enteric
##49
staging
european
cranial
##ury
vl
demonstrating
trp
blue
##ging
supply
pairs
networks
##oblastic
secretory
mixture
ions
testicular
qualitative
##otoxicity
nanopar
stop
noc
framework
yielded
incubated
##ecular
confer
##invas
perf
interact
##acting
##plastic
rational
alleles
purp
cerebrospinal
enhancing
postnatal
war
consensus
threatening
contral
separated
##oconstr
compliance
##hep
filtration
precip
metabolite
##min
c57
practices
phosphorylated
green
placent
##ograms
chor
hall
##embr
##ora
asymm
stratif
autonomic
stiff
transcripts
gy
dexamethasone
medias
controversial
##otensive
gradually
alkaline
osteocl
engine
transfected
pregnancies
##omegal
vesicles
##hs
emphasis
##nk
steroids
##tead
##atation
fdg
quad
atherosclerotic
uc
sirna
autologous
##oneph
##24
loci
tooth
genetically
lm
##izations
utilized
stained
adp
##queous
principal
somatic
ventil
subtype
isoforms
emerged
##p3
##oming
##omotor
bes
libr
##ili
hyperglyc
thermal
predictor
serial
differed
switch
tex
newborn
##icking
contralateral
differentiate
osteoporosis
corticosteroids
##ej
narrow
apparently
##rav
contributing
acquis
aqueous
labeling
scintig
##oprot
##ofib
mono
amelior
improves
binds
##iment
reductase
crc
injured
##enter
sheep
##mitt
##ionic
ecg
attempt
prophylaxis
ubiquitin
scientific
pth
##ectom
cold
002
adrenoc
evid
constructed
larv
##entral
organism
returned
##c1
reductions
##adian
tt
categories
gave
algorithm
##ips
##related
electrophoresis
follows
##ration
##amental
instead
gastr
jud
outer
false
virulence
fab
produces
ly
instrument
border
japanese
start
##aints
microen
turnover
auditory
catechol
##oderm
histor
speed
cro
massive
mother
alt
emotional
##tering
rac
art
correlates
bias
rhin
##icul
protocols
##eb
offers
consideration
expect
galact
##orp
##istar
salivary
lr
hz
##phenyl
overview
acth
reliability
validity
##ry
parts
##f2
obst
kd
operations
allowing
neuroprot
severely
wistar
aspirin
ligation
##mental
diaph
glauc
ot
##ires
operating
anatomic
plasmid
burn
consists
ls
##ulties
decade
##ads
pressures
##otides
co2
sb
african
##odg
mess
##anted
variance
##thral
aldosterone
mann
##inants
namely
mobility
##ocon
stere
##ostatin
##etized
##embl
thrombocyt
carriers
##raf
##ejun
mach
splen
plasmin
##aminergic
prenatal
bab
myeloma
practical
autosomal
challenging
##oxygenase
leukocytes
##mal
monke
99m
black
voltage
serine
##oxif
##opes
sensor
teach
intermitt
neurom
volumes
connection
defective
ccr
kappa
##100
##avi
immunosuppressive
##iod
##ophen
satisfaction
microc
guinea
diagnoses
tam
depressive
fundamental
cocaine
##ws
dysp
difficulties
minute
users
##ectable
##assay
##tivation
lowering
rating
parameter
ppar
triggered
##eses
##osyl
pu
##asome
##f1
hard
nephropathy
feedback
psa
devices
guided
##ensis
ones
quantified
transporter
vulner
predicting
bed
dd
immunofluorescence
clarify
deficit
##hl
ger
defense
scal
##oplasmic
##mg
##alc
prednis
##ensitivity
managed
##olus
##pher
##affected
depr
corrected
##urated
malformations
##eptive
##enopausal
##nat
##roliferative
##otension
gyn
profound
nin
##issions
sequential
##lux
virt
mirna
para
tight
infarct
cmv
digital
gross
born
au
neuron
just
former
##gesia
distant
accelerated
caud
##eting
deb
##56
acquisition
diarrhea
##ban
##pro
##vis
exception
##omerase
astrocytes
##cious
##phosphate
##eceptor
##thromb
ccl
helpful
rearr
cadh
##ime
##ectives
##opulmonary
glial
placement
migraine
dimethyl
##estr
unaffected
##ked
dispers
ging
pack
noninvas
##alin
depressed
graf
vom
##igenesis
##abilities
##g2
viable
enriched
##areness
blotting
fasc
rect
needle
papillary
technical
##edic
conduct
route
dip
lipopol
ki
indicator
mab
requirements
breathing
finger
situation
parental
masses
cumulative
##pecific
follicular
rf
##ortical
ball
##edema
##omonas
duodenal
cholec
transforming
##rd
alcoholic
ejection
hu
##iar
kb
synovial
autops
##37
whe
integrin
lymphatic
hemodialysis
##rous
joints
resources
list
##omers
mum
hypotension
concurrent
array
##lets
lith
weekly
erythrocytes
hodg
null
biomarker
adenoma
weakness
knockout
##isons
c57bl
##oxacin
manifestation
gover
staff
anatomy
##arp
partly
hodgkin
crani
feasible
awareness
phe
##ware
##hn
wash
guide
##yper
ammon
microenvironment
mapping
greatest
encoded
conform
adjustment
resected
auc
participate
progenitor
notch
survivors
conclusions
metalloprotein
neuros
believed
interference
interpretation
##usively
noise
ethnic
engl
approved
ground
##asic
resc
##rane
##mod
perox
hams
closed
##orubicin
##hepatic
accepted
##atum
reticulum
specimen
articular
vision
arom
autoantibodies
fourth
d1
critically
##rogens
optical
thrombin
underg
##bac
sixty
wa
g1
dic
disturbance
modality
##asing
traff
attachment
indicators
residue
shunt
incre
osteoar
undergone
homologous
vide
brach
crystall
fetuses
explan
giant
##bre
resorption
blockers
makes
databases
satisfactory
spin
endotoxin
lac
spermat
considerably
yr
indication
haemat
sacr
##weight
irre
##ching
plaques
##iration
apical
house
ecm
##plc
##apt
silencing
suffered
cadherin
exon
bip
attit
twel
##grade
summarize
hsv
twelve
##uous
determinants
tear
protected
##p2
society
author
##iking
##otes
subjective
##abine
room
recess
potency
infr
veins
dramatically
vomiting
monocyte
timing
intermittent
chains
arising
tumorigenesis
contamin
hered
##ostomy
mechanistic
screened
##oblasts
##nex
electrophys
prostatic
hemis
ulcers
a2
enhances
##3a
ultrastruct
integration
##ipine
highlights
veget
hospitalization
epiderm
arrhythmias
girls
intim
solv
har
surgeons
hor
layers
pericardi
enabl
methodology
panel
##epith
##iol
calcification
##nel
peroxidation
ham
##itect
participation
proton
##esium
neurotrans
##la
neo
##atible
##iae
lute
sets
statin
propr
##aceu
##tidine
bot
##ofil
surgically
suic
mesenteric
grown
##ibrium
pip
unrelated
##iness
##ilibrium
##embrane
tendency
outside
paral
latency
modeling
cysteine
obl
arach
north
osc
experiences
doub
abundance
created
pep
respective
elucidated
deviation
comparisons
##ote
exert
sick
staphylococcus
represented
errors
##ploid
##bc
aus
definitive
##inase
synchron
uniform
##dep
brady
prophylactic
pca
chromosomes
##atonin
##adren
indeed
##ogenes
##lic
desc
prompt
diets
china
concerns
erythemat
preventive
subgroups
cef
ultimately
implants
aneurysms
trem
perception
offsp
##psia
traits
pup
incomplete
fields
abl
##tics
preclinical
harb
##adequ
##abin
neonates
emt
inadequ
unexp
epileptic
##eded
lipopolysaccharide
aβ
##aments
discusses
splenic
mobil
particle
preserved
physiology
##uity
##amination
##ulder
policy
tac
contributed
tibial
##amines
ckd
nicotine
efficiently
polyc
##ota
electrocardi
hypothalamic
locally
immunotherapy
microtub
glaucoma
skills
differentially
profession
anth
##ash
encour
psoriasis
env
prolactin
nmr
##elihood
##amed
##43
##k2
inherited
cataly
umbil
picture
fell
theoretical
urban
##uz
stiffness
besides
cig
##glutin
##rops
carrying
offspring
lineage
nanoparticles
shoulder
tobac
anaer
melatonin
redox
unlike
hereditary
intraperitoneal
positions
##lipid
##keletal
tobacco
##xy
preferred
electronic
intravenously
compet
mh
ways
fine
2010
##oea
##rt
tended
tk
immunoreactivity
##angement
medline
urea
bmd
deterioration
##oqu
rotation
readi
cascade
tor
modulating
embryo
readily
conscious
visceral
noninvasive
cytosolic
regulators
pathophysiological
son
retina
analges
##roz
commercial
periodontal
reporter
##opress
##ocr
downregulation
luc
blast
scr
##inergic
likelihood
effort
ineff
favour
lymphomas
trigger
intens
magnesium
identi
genital
stat3
##fe
##enal
mitogen
##uric
lasting
acetylcholine
##ologist
carbohydrate
chamber
ath
flux
##ued
hol
relief
ars
coupling
kit
definition
exclusively
candidates
003
##viral
crypt
##rotomy
radial
prospectively
addressed
##eleton
clusters
socio
courses
##epinephrine
##itr
##h2
incision
tone
feasibility
##urance
spectra
a1
##ophyl
jnk
situations
norepinephrine
vacu
dosing
##chlor
hydrolysis
##ematic
##ba
##ugin
restoration
isot
ankle
modern
proteinuria
##ele
prep
##factor
studying
hemorrhagic
boy
##orbent
speech
##ipar
vasoconstr
validation
septal
continue
pneumoniae
##oradi
##blastoma
##oemb
##ypertens
professional
hh
trich
salmonella
worse
perin
urg
fsh
substitution
searched
phyt
strict
disappeared
chemotherapeutic
overcome
complexity
##empor
deoxy
vin
axial
vc
implanted
passive
linkage
achiev
tric
##ecs
pals
retri
stent
##apped
retained
combining
foci
tasks
homogene
bund
##inous
rural
##plex
##mut
insufficient
vestib
##uly
##a2
representing
inactive
nal
focuses
difficulty
immobil
epidural
sg
functionally
adenomas
bax
ventral
180
artificial
##isci
hyster
accurately
2009
empir
gv
reveals
connective
senes
jejun
interpre
dopaminergic
austral
changing
hydroph
software
erythrocyte
##anned
##ubin
p21
enlarg
aspiration
orbital
extend
##usp
practition
discussion
boys
pdgf
bt
locations
nmda
##anal
resusc
microvascular
composite
##day
immunization
macro
doxorubicin
acad
##plinary
fos
##acil
complementary
radiographs
gad
parasites
canine
abor
append
otherwise
performing
##n1
comprised
acceptable
novo
l1
##ubation
hyperp
equally
acceler
nb
##acycl
##oscopic
surpr
alle
estimation
wil
supernat
actual
##ordance
contractile
dw
##rown
derivative
autopsy
tpa
##iph
normalized
similarity
##elec
vic
usefulness
opening
aspart
##unctiv
cough
clamp
penic
##ermia
mediating
immunop
ovary
##ura
remarkable
##ionine
scaff
limbs
quantification
strand
outpatient
##recip
underl
umbilical
##ectors
ia
##omod
releasing
##ifer
rnas
cigar
notably
gt
million
addi
##aryng
angina
modulated
margin
##oxicity
sulph
qt
extensively
##ophilic
aspect
anastomosis
##uginosa
striking
capt
library
faster
quite
##endocrine
mutagen
##yel
adduc
hypersensitivity
##iton
dcs
th1
blocks
dens
pts
1beta
posts
nd
ea
pharmacokinetics
aeruginosa
piv
##63
endoscopy
june
upd
##iatal
shed
haemorrh
detr
amn
hos
sporadic
description
arise
gallbl
efflux
meningitis
peroxidase
ans
transmembrane
analogue
peg
residents
sial
##ophosphamide
persistence
hydrophobic
antif
acidosis
balb
unexpected
interface
align
pubmed
fig
uro
##irubin
coinc
hind
##des
items
dilatation
shaped
conversely
harm
cows
##uf
th2
hplc
attempts
csa
paired
##rile
glycogen
diaphrag
track
nause
lumen
cyclospor
##opathies
phylogenetic
physiologic
##aver
trends
powerful
##obulin
pge2
endometriosis
##azol
team
asthmatic
architect
ganglion
focusing
euk
crohn
##ulus
bf
moderately
declined
##avir
cloned
##eptides
##ocated
interviews
nig
transplanted
transfection
nausea
thrombocytopenia
damaged
fibrous
absorb
mscs
usual
oncogenic
expanded
eh
sizes
glucocorticoid
aeti
too
naive
preservation
division
northern
sept
input
observational
viol
cyclophosphamide
randomised
##epithelial
1α
cyclo
plex
plasminogen
##hion
immature
mrnas
mediator
d2
orientation
annual
bolus
##ypertensive
##iffer
tetra
##olarization
ef
quick
lesser
chemokine
sy
tag
flap
nitro
attack
round
chemot
##urity
juven
project
overload
screen
src
##uscular
homolog
nitr
intense
##avail
vasopress
suggestive
##ana
occupational
##urgical
waste
cess
cil
prescribed
##ronectin
##ophila
eukary
degenerative
temperatures
##unk
##mt
fashion
ensure
girl
indometh
minimally
##tia
##ffe
science
surgeon
reflected
opposite
2008
snps
largest
##but
##ogeneic
echo
plasticity
elastic
##esare
cyan
axonal
##tes
shared
perspective
angiogenic
apoe
##imus
##ynaptic
##d1
##pin
homozygous
translational
kr
surprising
causative
episode
gallbladder
sib
indomethacin
identity
subsets
vasculitis
decisions
displacement
s1
##uctu
night
cation
vertical
sound
prl
proc
iu
##rogenic
enable
prevents
irrevers
2005
scintigraphy
cessation
inoculation
spp
##oor
pin
mitotic
tcr
fluctu
forces
representative
accounted
##ister
##ieve
acidic
##aint
c1
##diagn
##35
adolescent
##esarean
flexion
yo
placenta
ascites
fre
assayed
##66
##enstr
ko
catar
##water
colle
augmented
incontin
converting
served
mf
triglyceride
scaven
##reci
anticoagul
immunocomp
researchers
##izumab
##arter
##ded
##isciplinary
ipsilateral
ent
scat
##ocin
attenuation
testis
carrier
bon
princi
smad
adrenoceptor
##irc
collab
stronger
elong
vp
probes
titers
classic
d3
daw
endocardi
selen
becomes
eventually
df
##iomy
analogues
occasion
circadian
ophthalm
barriers
recombination
inoculated
apo
##ivation
ft
glucagon
laryngeal
td
capsule
##atr
gait
horiz
comorbid
activates
##ondyl
subcl
##va
atax
##cn
ibd
coa
##terase
participated
dilated
##onom
110
dimensions
ganglia
##litaxel
principles
##ils
inadequate
postmenopausal
share
14c
platform
natri
neuroendocrine
anesthetic
lymphaden
simulation
cxcr
##after
alanine
simulated
dich
paclitaxel
clinicopath
allevi
accumulated
perioperative
als
label
antihypertensive
aqu
quantify
easy
microglia
##asal
##atile
noradren
latent
axons
fibrinogen
mutated
##vironments
heterozygous
cattle
km
neuroblastoma
##bumin
cerebell
dismut
german
experimentally
subm
##romycin
##ests
##regular
hypo
nonspecific
##oric
couns
palsy
pari
crystal
helic
irregular
##osan
##cape
li
selectivity
2007
laparotomy
snp
##±0
trab
mimic
2006
visible
##rexate
reading
march
brid
disseminated
##urnal
##orous
thrombus
uses
precursors
atm
psychos
prescrip
##omeric
projection
encephalopathy
abd
##olipid
histopathologic
evolutionary
##ilar
##vs
##esize
assessments
##aving
ti
believe
blocker
box
mandibular
lowered
##fort
coverage
naturally
hdac
##ogenicity
normotensive
survived
evol
nsa
descending
##ayer
curative
deplet
scales
##iac
negl
thorough
subp
pooled
##67
filling
kerat
comput
wind
eating
requirement
prp
monol
##yrin
mos
kl
hmg
##34
lymphocytic
uk
incorporated
persisted
##odon
eligible
leakage
upstream
irradiated
aspartate
unable
govern
pas
english
##ping
rn
competitive
osteoarthritis
discl
##arch
antidep
communities
anesthetized
bones
##atibility
inversely
eleven
##ert
biologic
radicals
cholecyst
2012
autom
linking
lysosomal
dye
g2
her2
pod
construct
nutrient
p450
##tium
##me
##iciencies
dense
coated
dermatitis
dyn
##ifferenti
imbal
neurof
visits
recognize
sap
sessions
killing
endoplasmic
modest
##au
partners
##ropo
attacks
collectively
polypeptide
hypertrophic
gynec
2011
semi
cholinergic
analytical
mk
dawley
dismutase
unst
sprag
sprague
dimer
deline
##isc
spectral
140
providers
pretreated
##otrexate
config
##rowth
terat
examples
recordings
esophagus
deprivation
mcp
gem
influx
spind
perturb
##amil
600
disl
##max
##c2
deposits
stimulates
##entan
enlargement
##itting
stabilization
supplemented
##itated
merc
##cp
educational
##rene
foreign
seed
##ceptions
##idium
methotrexate
sequel
prone
allogeneic
##array
professionals
constitute
gst
chel
saturation
gnrh
clim
diver
neuroprotective
##ories
##flur
##ecan
ai
##mm
infused
version
regurg
abc
##onephritis
spher
ideal
antidepress
porcine
cholangi
land
embolization
emergence
name
##ept
retardation
guan
coex
why
exclusion
antip
##otropin
hcg
equilibrium
ingestion
##lin
fs
microorgan
prove
inhalation
β1
necro
hemangi
category
anch
perforation
##utable
recessive
proportional
striat
rg
inverse
investigating
horses
##sych
erythematosus
dark
recipient
ala
##ystem
centre
neutrop
##atinib
##omyel
##anolol
neuropsych
##oxifen
dissociation
fev
2004
myelin
incontinence
##otting
shortening
appreci
juvenile
fibronectin
thereafter
beta1
consult
tro
aware
##mcs
erk1
adsorption
inside
hospitalized
cardiopulmonary
pharmaceu
##obut
aerobic
incident
##artan
anaerobic
stret
remarkably
pseudo
corp
##cepts
analgesia
acuity
technologies
grafting
summarizes
asper
oscill
registered
formulation
contamination
##oides
exploration
sar
neoplasia
004
mouth
##igenic
radiol
clonal
implemented
isolate
conformation
arachid
reinfor
embolism
careg
exhibits
jak
regarded
123
causal
anaesthesia
tlr4
pes
carboxyl
thromboemb
130
atl
pathologies
cea
tx
##ovir
symm
embed
scc
##arynx
slowly
segmental
pacing
intraocular
tl
hyperglycemia
ic50
antigenic
schw
killed
continuously
unp
thickening
clone
resuscitation
incid
mediates
##ler
modify
diverg
perh
##elves
bat
maxillary
compatible
##omatosis
bif
hydroc
##abolic
undet
##oprotective
abdomen
##x2
extremity
loaded
##stem
brca
malformation
examining
leukemic
##unting
standards
acup
candida
perinatal
commit
erythro
mds
propranolol
balloon
chemokines
cochrane
corticosteroid
trail
muscul
solub
triple
rose
genotyp
swe
walking
termed
diagnose
assumed
allograft
respondents
wounds
##albumin
trimester
islet
terti
buil
transverse
bs
##ivariate
span
attributable
cin
questionnaires
retrograde
##ighb
heme
##ada
monkeys
neighb
sensitization
evidenced
plane
mycobacterium
meg
hypothyroidism
ik
leish
video
asperg
july
downregulated
visit
sediment
standing
adapted
trained
necrotic
recons
structured
##rozen
perhaps
##break
gingival
cd34
vestibular
acyl
seventy
hbs
environments
charge
##oreg
hernia
overexpressed
eros
birds
erythropo
##floxacin
cll
##oidosis
onto
discrimination
h2o2
explo
vasopressin
immunomod
accordingly
stone
width
diges
airways
beh
interrup
spite
##x1
h1
##ellite
##ulose
schem
##opia
tertiary
habit
##onazole
sun
let
pseudomonas
neurotransmit
dermal
mention
responders
etc
biofil
##osures
tbi
##noid
##88
##onectin
veter
challenged
##formin
concepts
cyclase
surfact
bcr
c4
guidance
hematoma
manipulation
##ografts
splicing
circumfer
labelled
scen
resol
immunoreactive
##ibration
fn
2013
bioavail
warranted
frozen
##obarb
lid
trunk
complaints
contrary
##odal
april
utilizing
retinopathy
##59
progressively
menstr
detach
empt
mediastinal
extrac
humoral
##mv
endothelin
verified
##xia
##icients
inhaled
fragmentation
resembl
1990
##illi
cerebro
granules
senescence
##eted
bands
microarray
income
tamoxifen
parietal
microv
systematically
##ectomized
coefficients
nacl
131
##inating
##m1
constr
irreversible
avi
aggregates
bull
electroly
establishment
epidemiology
bipolar
##pine
determinant
completion
brains
microgram
phospholipid
lifest
cxcl
outbreak
unstable
##olid
##uits
transferred
##cy
streptococcus
tap
##ders
observe
sna
preference
jus
promise
retroper
meal
##arial
proteasome
125i
oxal
##oli
tree
contractions
conjunctiv
cip
##erge
erg
pmol
cac
fen
epine
postpar
depleted
becoming
subpop
proteolytic
wet
chd
##osen
bh
pten
hypercal
va
immunobl
##athyroidism
attached
simulations
stones
messeng
preec
hyperth
mtx
thems
triglycerides
catalase
nonp
themselves
discharged
skull
processed
institute
thr
##orac
##uled
##angements
mammals
tris
nadph
2003
encodes
##uding
mood
##roplasty
beam
additive
immunoprecip
race
demand
forced
oxidized
bmp
bud
exposures
allergy
##itabine
fertility
rif
web
pivotal
promotion
opportunity
overweight
immunosorbent
cov
deal
genus
##tives
attitudes
leishman
##iesis
morphologic
mumol
##ositis
##ystic
lysine
##ctive
##epsin
amplified
tens
film
owing
buffer
##off
homology
eliminated
ischaemia
suspic
revascular
cvd
##b2
meaning
conjunction
##tures
offered
##ximab
##flurane
##remia
##uterine
oncogene
gtp
bilirubin
metformin
hallmark
curc
palp
answ
harv
cml
c2
##uvate
postpartum
poison
##acial
ampk
##urable
somatostatin
tong
propag
attractive
enough
counterpar
hemisph
polyps
attempted
2a
copy
##anin
##opril
schwann
ago
interacting
oocytes
##ulates
chosen
##ococci
##onv
diuretic
2002
spr
teaching
##ped
dros
##incter
repeti
##tism
conformational
cephal
atopic
##ai
hypoglycemia
##ushing
##ulsion
abrog
manual
brainstem
drop
shear
sole
##gestive
cerebellum
striatum
fluids
salv
ppm
icam
adiponectin
##chem
mtt
took
create
enlarged
uterus
suspicion
troph
continues
##vastatin
elective
covered
look
parenchym
hypothalamus
alkal
toc
##xr
micromol
resource
infertility
preferentially
apc
transporters
nodular
calcit
sds
pharmacologic
sou
indus
##aster
##68
currents
separately
programme
monotherapy
replaced
colonization
transmitted
seemed
interfering
stroma
##estim
##idazole
ischaemic
fistul
transferase
static
deformity
occasionally
mom
ram
##operation
exerts
foss
sag
cbf
precision
apart
fibres
cataract
roots
til
southern
electrophysiological
paradigm
larvae
sphing
pmn
##otox
fh
routin
1alpha
painful
##anti
micrornas
ineffective
braz
fecal
hydroxylase
##agg
digestion
##itors
extremities
nif
##astric
dg
##avel
##olipoprotein
evolved
tip
inapp
sugar
posit
dysregulation
ulcerative
intrath
sided
##acterial
respiration
spondyl
chicken
cholest
comprising
conditioned
constitutive
intell
electrode
regurgitation
vertebr
rho
rd
160
iop
ductal
probable
reaching
innov
din
distributions
priv
cochle
ataxia
##rug
2001
##75
notic
presumably
congestive
epinephrine
explanation
natriuretic
paf
vectors
hydrochlor
sequelae
apolipoprotein
architecture
endemic
phenomena
epidemic
##ochemically
spindle
fear
scenari
waves
varic
immunost
##brain
lectin
immunosuppression
xanth
manifested
forward
distinguished
apnea
peroxide
carefully
lucifer
nodal
analgesic
##urin
##iding
thymidine
##ero
##42
connected
endoc
enables
##orbol
expiratory
##allow
##retro
helper
epitopes
kind
eosinophils
flat
fertil
hosts
essentially
glass
##nd
aller
branches
solitary
echocardiographic
academic
vt
tyr
##avirus
##enzyme
##95
reversal
ambulatory
##h1
optimized
antiretro
front
##oler
leiomy
dest
rcc
##aly
hot
applying
trait
fifteen
definite
drosophila
envel
molar
##flex
##ilon
fp
gam
##aminase
##ober
gives
influencing
establishing
horizontal
reflects
##amuscular
##hydr
homogen
##ometer
a5
hyperm
developments
solvent
che
reag
myosin
sense
##irs
##rought
##gene
2014
bb
m1
icu
deox
inserted
caffe
penetration
characterised
lifestyle
los
intramuscular
intracere
peroxis
##olecular
oncology
embedded
positron
psychosocial
vo
##gt
##points
chlam
preoperatively
homogeneous
generating
##fen
efficac
acl
lipoproteins
##inos
opportunities
##ians
illustrate
dial
##odium
ldh
crf
surprisingly
discontinuation
communic
neuromuscular
histopathology
selectin
glioblastoma
1a
recurrences
oligonucle
achieving
parenchyma
overlap
driving
arab
ultrastructural
olfactory
retinoic
##arium
decompression
marginal
##ritin
cyp2
##ighting
drive
cauc
square
ie
##apine
details
gained
##rost
cab
sarcoidosis
##oms
cleft
chronically
interpreted
##ried
cardiomyocytes
referral
##azone
curcumin
rule
105
sphincter
sig
reserv
mand
##ala
##iable
##zer
puber
##ietin
gfr
outl
##omed
##elles
##activation
##opos
ja
livers
##lings
r2
hyperch
##oracic
leaves
caucas
accompl
perfused
raw
##nexin
suture
submitted
pilot
meningi
practitioners
tand
chf
chim
eighty
killer
brown
frame
keratinocytes
pai
imbalance
hyal
luciferase
##oustic
ngf
##lipidemia
##orns
extrap
select
##ineal
restore
rub
intravascular
personality
tongue
macular
##epam
constric
##orted
sonography
##insulin
country
specialized
##otroph
quantitatively
nitros
september
october
analogs
therapeutics
hepatocyte
automated
twin
trafficking
designated
cdc
positivity
iodine
sacrific
##oac
##illar
ranges
session
circumst
##aldehyde
septum
neutralizing
hypox
eggs
carry
##respons
goals
circuit
serological
carp
luminal
collateral
nucleotides
osteoclast
##ming
mentioned
iq
erad
tracheal
drawn
asked
similarities
plexus
elast
advanc
##agia
microorganisms
##uclear
weights
##ned
microl
intrauterine
cerebrovascular
schedule
lysis
##adj
bioavailability
##ullary
##osum
briefly
osteosarcoma
##inter
##met
develops
genomes
chemo
qol
sea
bw
entities
adipocytes
follicles
acr
##48
dent
111
fungi
##atinum
emplo
tandem
##45
##olate
paralysis
##otrophic
multim
purposes
##39
vw
soon
thymus
lag
cigarette
glutamine
trypsin
##vern
discrep
computerized
##ucl
astroc
vasculature
glycine
parac
##itating
brazil
sharp
antiretroviral
facilitated
leu
##entis
suicide
reconstit
tot
deletions
epitope
##odend
conjugated
##educ
terminus
iliac
pec
cpg
cfu
saliva
gf
tabl
routinely
incons
##omyc
##ozo
##ools
##opyr
dysph
opin
newborns
property
hypertherm
text
contributions
sucrose
fel
highlighted
folate
dissemination
render
##verte
##bow
arterio
##arrhythm
##otopic
##ouracil
methionine
antibacterial
urethral
interfere
wat
epo
ferment
yields
##gic
cdk
unev
##utum
palli
radiologic
cavern
embase
automatic
##ipital
nitrate
nrf2
##lands
emg
dystrophy
antifung
hypothermia
excised
oxygenation
revision
compartments
periodic
##uan
cyclooxygenase
adjusting
varies
##etamine
biomechan
sah
nephrectomy
dihydroxy
##vant
quadr
##cemia
modes
##omegaly
metalloproteinase
justif
datas
played
##imetry
examines
extreme
ureth
phospholipase
forear
lean
oss
typh
cohorts
##oxidase
telomerase
##ius
empirical
##aved
irresp
##razole
encephalitis
initiate
calves
euth
##icillin
corpus
outflow
scoring
anion
trac
##ials
intermedi
gbm
xyl
##69
visualization
##m2
conven
leaf
began
papilloma
ascorb
suppor
genetics
anticip
rbc
micron
giving
eigh
##uing
gol
optimum
multidisciplinary
##55
rrna
imped
microscope
parenteral
##73
##inance
##utely
##isis
##ocytoma
reflecting
eradication
##acycline
granulocyte
smear
evaluations
fractional
thrombotic
industr
repetitive
nurse
trypt
student
univariate
confined
helix
contractility
ok
formula
foods
messenger
wean
immunized
proteases
neovascular
ionic
mobile
histi
nicotin
capture
c5
##ker
medullary
1999
##expl
impacts
infrequ
noradrenaline
##atectomy
irrespective
##orax
spi
##psych
surfactant
##opharyngeal
##thrombin
stratified
accessory
##01
##copl
lew
##enth
erbb
resident
surveys
administr
##ophosphate
rapamycin
##plantation
##amily
lib
p3
ascending
demonstration
##olol
domes
##ensitive
##ois
pref
initiating
uve
soc
arc
aberrations
##aturated
##uate
##amen
##edge
youth
hepg2
##arboxyl
##absorption
pulp
heterozyg
##omb
usage
##plate
renew
vitre
neutropenia
antioxidants
ferritin
dead
sensing
intercellular
multidrug
suppressing
2015
ran
capability
##ocele
tons
suspension
claim
noct
intram
unres
protr
graph
correctly
##eliac
microbi
phospho
fus
penicillin
conductance
radioimmun
deleter
##kinin
##icidal
walls
aph
hemodynamics
diagnosing
bay
supportive
deleterious
metals
trache
pyruvate
gfp
gvhd
cros
trypan
mca
eukaryotic
mobilization
behavioural
bup
arachidonic
mini
filled
phagocytosis
verteb
##lampsia
hyperpar
converted
vocal
permit
interacts
beg
intrap
##ethylation
preeclampsia
leucine
##ophan
defining
intrad
mdr
palliative
cytogenetic
##mus
adding
pah
quantity
limitation
compromised
sensitized
bdnf
hypercholesterol
nail
ctl
##eces
cosm
codon
jour
##lv
infusions
##icans
prescription
revascularization
bulk
modifying
##ufact
alkyl
apparatus
infiltrating
##o3
##infected
##arach
periv
normalization
enabled
##psychotic
ide
dyspnea
registry
excitatory
manage
phosphorus
orch
##orin
domestic
exten
cd44
passage
cadaver
ami
##plicated
fruct
modif
##coplasm
##°c
106
##osidase
minimize
immunologic
##affin
retroperitoneal
manufact
industrial
platinum
circular
coil
stimulatory
##omide
hern
rated
objectives
##enes
van
hypotheses
##abd
exerted
myocytes
arrhythmia
pharmaceutical
descriptive
##gluc
101
chlamy
fourteen
aq
tors
450
promoters
equip
creatine
slower
anomaly
periodon
househ
adenovirus
slices
isopro
vulnerable
verap
belief
unlik
mov
urolog
diaz
tin
africa
unexpl
unlikely
verapamil
gray
##ounding
##d2
compensatory
postin
bony
analyzing
hemolytic
fitness
multif
sj
chemicals
temporary
biologically
allo
##dh
dimension
##ariable
##ulsive
2016
describing
dup
amput
##zes
##ito
##imp
entr
meeting
acupuncture
disulf
mesoth
ll
inactivated
allergen
##icks
virtually
oligodend
sputum
fair
gent
preserv
discrete
hematologic
choline
diabetics
proce
##thood
delt
buc
##pc
nox
stored
encaps
adulthood
alive
august
cement
losses
coval
aminotransferase
##panic
h3
1998
thresholds
indicative
responding
kept
antipsychotic
##oglycan
lncr
##ocompatibility
formulations
industry
vena
programmed
smoke
toll
##ittal
forearm
shifts
##omyelitis
##bi
today
proportions
equation
asa
postulated
partner
##idol
aetiology
stranded
eosinophilic
planned
pad
##ropyl
abeta
instruc
mec
a549
##pi
gyr
principle
glu
mism
maln
##growth
basement
phospholipids
cgmp
myofib
triggers
##oproliferative
##onium
repress
antifungal
subcellular
emphasize
paed
engineering
##ylamide
menstrual
extrav
instruments
hba1
proliferating
bcg
inappropriate
bundle
##ading
feb
facilities
asian
dere
averaged
##adm
dispar
gsk
statins
##onyl
laborator
enrichment
##imb
##akes
applicable
##inositol
##cein
##ographically
computational
totally
constitutively
##oderma
##ger
pit
fifth
intran
##phosphor
albicans
purification
nps
amniotic
statistics
paradox
##afil
striatal
hct
disappearance
b1
##itability
confirming
##ka
microtubule
fate
audi
keep
##oreceptor
##lem
vast
##phasic
##thy
neurodegeneration
schist
##62
cesarean
summarized
suppressive
termination
contaminated
protects
circulatory
ecl
##o1
anticoagulant
pon
arb
anthrop
islets
acs
##utrition
retr
subclinical
hyperparathyroidism
aggrav
##opsis
##tip
newer
hydrocephal
slope
laparoscopy
dv
allerg
sma
##4a
ducts
##78
##ophore
circumstances
adopted
lamb
lithium
suffer
glucocorticoids
online
icp
acin
nev
tele
city
arms
haplotype
##rontal
##ofacial
parox
transc
efficacious
digestive
presentations
kary
granulomatous
99mtc
##elect
bv
augmentation
object
mtdna
##istrib
arteriovenous
glycerol
##rolimus
instances
toxicities
##uoden
afferent
##patients
ae
stra
cytosol
##keleton
##ova
nude
criterion
f1
##vem
pore
stain
substituted
extending
##anger
pgf
inconsist
peaks
ninety
nodule
108
adam
ammonia
resemb
fulf
atrium
##ato
##icl
profiling
fv
modulates
conflic
##itous
abortion
kinds
leukaemia
caffeine
follicle
actively
differentiating
##glycer
isop
pma
axon
titer
##ramidal
explor
rice
homocys
hi
enos
competition
subarach
vasoconstriction
hysterectomy
rsv
sustain
1997
##economic
transpl
gliomas
indirectly
math
006
pelvis
jaund
##99
aur
recall
immunocyt
segreg
glomerulonephritis
prednisolone
rescue
103
t2dm
haemorrhage
silic
expend
pericardial
pem
window
ka
aromatic
spasm
##ifferentiated
belonging
dilation
##irable
citrate
dependently
disrupted
avoidance
anter
expert
##lyl
hands
##omere
zeb
numer
salvage
endocarditis
1980
laboratories
integral
fruit
pcos
perc
mrsa
informed
thirteen
rhabd
suppresses
facilitates
overlapping
usa
hematological
remove
glp
accounts
##ethylene
##ofol
##chemical
immunostaining
desm
##roten
optimization
reproducible
maps
##rays
filter
hela
ew
clinics
##ographical
farm
safely
##dd
secreting
##osystem
phorbol
##n2
soy
##odes
102
seeking
ecological
##pheres
##arges
neuropathic
fibrotic
posttrans
oedema
adhd
aeros
##aterally
differs
junctions
##uinal
intoler
acoustic
##44
season
##acyl
##fluor
1995
rationale
##agl
5p
expendit
##nar
vip
palm
publications
breakdown
##bar
##dia
yl
margins
ole
##oxication
tryptophan
nlr
submuc
##osides
##opre
cck
hydroxyl
ri
abilities
possibilities
s100
morning
lavage
°c
periton
films
popular
##otom
immunoprecipitation
rough
sixteen
cues
directions
react
altering
avoided
microp
axillary
poorer
radiography
college
##operoxidase
perceptions
##amph
serves
##ares
##ophylline
tremor
excitation
clinician
amyloidosis
lamina
originating
antisense
cuff
falc
fossa
tubules
overexpressing
##letes
cytology
crude
p16
800
metapl
bbb
helicobacter
##vix
relatives
treg
##ocarcinomas
##ern
repeats
discontinued
##erate
##uminal
microrna
propofol
cured
igfbp
##nitine
cytoskeleton
gradual
osa
anp
elicit
fev1
##glut
##ygd
anaemia
rheumatic
lb
zones
nifed
trh
links
subarachnoid
231
mex
devi
hgf
cytomegal
epidermis
sut
##omics
zero
named
hemisphere
flank
scd
confirmation
volunt
1996
pdt
warm
##oxane
reservo
flexible
cultural
wky
arthroplasty
mib
prednisone
chondrocytes
configuration
pathogenetic
investigators
fluorouracil
##uspid
von
progressed
takes
employing
##aking
intrahepatic
urgent
cd11
sparing
burs
e1
parenchymal
ureteral
pde
coordination
chickens
burst
works
chori
neurotoxicity
nifedipine
cyclosporine
##33
3p
held
gelatin
cava
wm
sox
##oreal
infarc
timp
amygd
autoimmunity
nalox
##entful
##elia
lf
tracer
uneventful
b2
structurally
behind
deficiencies
hba1c
##trin
occipital
considerations
electromy
ont
##urea
ever
##ifug
104
##enoid
lipase
##arbonate
##ortal
preceding
escape
caudal
conditioning
nocturnal
methodological
mot
checkpoint
peritonitis
wrist
big
2b
##itinib
papers
##agglutin
inositol
kore
uncont
reasonable
p1
##otent
007
marine
angiographic
##inone
progenitors
##while
anthr
reserve
##aceae
porph
febrile
gastritis
##ega
grades
yell
##ophilia
dilution
trna
novem
validate
sequenced
breaks
exhibiting
##rp
##igmoid
eliminate
sbp
008
##imental
confocal
agar
tat
febr
envelope
pay
periodontitis
##xine
lifetime
##nec
poisoning
##ozoa
toxins
alignment
anten
november
anticoagulation
glucuron
naloxone
##abeled
oxidant
worsening
socioeconomic
alp
hydrocephalus
brachial
dut
vig
succin
##2b
throughput
##remic
graded
sagittal
femur
##gd
##olateral
machin
simpl
##acc
caries
vaccinated
myx
catheterization
##ida
sheath
raise
arsenic
cytomegalovirus
chaper
gastrin
trace
transcriptase
comorbidities
missing
meet
gag
cirrhotic
lactam
##itance
afford
##mium
##itoneum
##osamine
relapsed
infrared
bacillus
entered
paediatric
osmotic
haemodynamic
cholecystectomy
##clonal
##andial
coexist
radion
yellow
##otri
endovascular
##32
simplex
conservation
nucleic
february
glycosylation
##acute
elbow
##acaine
selenium
mind
##traum
omega
synthet
sized
##77
amen
distinctive
pka
hope
dopa
##antic
impairments
##etrical
visualized
golgi
npc
##oactive
seasonal
cd40
wheat
handling
##yrate
algorithms
avp
physi
bacterium
constructs
ky
constants
thymic
##itig
##okinase
alumin
##itoneally
##olding
nephrotic
adequately
##tured
disclosed
hyperthermia
phosphatidylinositol
colonies
individually
apply
##puts
sor
cervix
sampled
uric
repression
##atrol
cleaved
##tigm
emphys
##oskeletal
detachment
intoxication
provision
pulsed
financ
coagul
ssc
##odontic
parp
exacerbation
nav
gonadotropin
contribut
polyclonal
##igation
detrimental
radioactivity
overt
##ortem
##vular
sand
sent
edge
originally
##veratrol
deacet
exud
##abolism
##ented
copies
hn
historical
disad
microsat
nom
preceded
rodent
filament
ubiquitous
transferrin
clean
advance
##infection
##itamin
##othorax
fibril
##odiaz
harvested
microcirc
dro
##aker
scheme
underlie
intention
relate
bk
##idae
expon
biomass
reciproc
multicenter
dislocation
jaundice
##ithiasis
mixtures
mucus
accumulate
aki
inpatient
elongation
worm
asd
resveratrol
disadvant
folding
endometrium
##obarbital
flavon
polymorphic
ventilatory
palate
enhancer
optimize
115
electrodes
unfav
familiar
##ino
epsilon
cultiv
pw
dq
surviving
dereg
spastic
decay
##amicin
htlv
appropri
##opter
##nes
##abetic
atri
clinicopathological
medulla
lactic
##eval
accid
thyrot
##icious
polys
nsaids
vanc
accounting
locomotor
ritu
parap
##ocyst
counterparts
obviously
biofilm
145
eyel
adhesive
##emias
trabecular
##urium
calculations
##fil
##ompass
captopril
trigem
reactivation
carbam
encompass
erup
##eption
radionucl
diaphragm
hypog
rip
contacts
tomographic
##arinic
caroten
predictions
inability
##ocor
triggering
morbid
attenuate
##oto
inguinal
1h
mathematic
201
patency
pci
##flav
th17
densities
rituximab
vill
musculoskeletal
##emporal
oest
precon
##ylic
scalp
##ermic
hydrochloride
universal
infiltrate
managing
sedation
n2
scored
emphasized
presumed
intraperitoneally
grading
##diagnosed
109
##tran
##r2
hsp70
abscesses
##onical
fulfill
##oventricular
granular
mw
##inesterase
peric
##benz
spir
##tizing
hamster
fb
lidocaine
chemistry
athletes
radioimmuno
##mann
photon
plain
ih
capill
nitrite
thalass
electric
##dible
actually
quickly
spreading
nafl
rhinitis
idea
##ificant
##itization
##alanine
spot
##ofen
##urgery
photo
chance
##apopt
benzodiaz
##l1
##cd
##ibrom
granule
borderline
duodenum
##iparum
coc
hes
whil
stopped
##opoiesis
acutely
fri
etop
ileum
categorized
calp
relating
mesh
##oresist
##terenol
vwf
swallow
falciparum
nephrot
whilst
intubation
homocysteine
129
braf
machinery
condens
##ply
##rist
phage
reproducibility
regenerative
dioxide
##istribution
etoposide
warf
##inates
die
##opus
##osacchar
schools
##sk
mucin
plur
tracking
##aind
quer
synaps
pbmc
exceeded
##rogr
##ola
##adjuvant
parotid
len
equipment
breeding
seconds
ff
##dii
anc
hyperinsulin
##agement
floor
fra
##aran
##47
prion
bicarbonate
insurance
##uation
transmit
hyperthyroidism
century
confirms
arf
asymmetric
silver
cool
mosqu
uncover
##ignificant
msc
subcutaneously
##phase
##iently
pestic
hous
##vive
1994
private
bioactive
adenocarcinomas
matching
##rae
tumorigenic
reproduction
analyse
timely
counseling
catecholamine
cxcr4
##mission
##car
somewh
verbal
emptying
potentiated
cadmium
c6
obtaining
unfortun
patent
erythroid
percentages
consistency
enteric
##enem
supine
##hal
imatinib
hier
##wards
motifs
prolongation
priming
reacted
multivariable
accomplished
p27
voluntary
remote
differing
macrom
bacteri
nutrients
nafld
ribosomal
##olec
resin
running
##lp
anaphyl
contraind
ulceration
unnec
##rons
globulin
calcitonin
faecal
##astin
unnecess
construction
coping
sacrificed
continuing
##ayers
plasmodium
cot
##haus
mek
australia
##anium
##obs
rodents
palmit
favourable
entirely
avian
##uresis
isoproterenol
##ivacaine
quanti
##razol
ratings
##ronate
survive
ich
vldl
undifferentiated
victim
puncture
stabilized
necrotizing
brought
tolerability
gemc
depolarization
##amel
brca1
rectum
tubulin
vimen
calf
##onine
synthetase
##verted
hierarch
views
hbsag
multifocal
eighteen
multis
oesophageal
herb
centres
split
participating
vimentin
mutagenesis
lived
mitig
##idone
107
commercially
mpa
##afen
beats
lymphoblastic
##osclerosis
malon
prescrib
duplex
alters
gemcitabine
ber
sufficiently
##zymes
##nant
stretch
caregivers
vulnerability
distric
vesicle
neoadjuvant
##ropine
institutional
oxyt
swed
station
neurotransmitter
##rophilic
bronchi
void
facult
terr
oriented
##oni
seropos
ks
accompanying
stresses
1b
weigh
##dialdehyde
jaw
disturbed
immunocomprom
moiety
##amer
mosquito
nonh
dextran
diminish
ix
##ards
plantar
connectivity
lineages
##divid
nocic
##ran
somewhat
west
fluoride
postpr
transloc
##elioma
dha
biomechanical
##g1
code
##relin
moment
bid
##orporeal
spaces
mabs
inherent
cycling
##del
ptsd
granuloma
chap
##oquine
##ilis
carnitine
rearrangements
biotin
##organic
cm2
vitreous
neurogenic
##lements
invent
gentamicin
##eptic
clustering
nephritis
anore
roc
bisphosph
acetylation
cochlear
covari
nn
mpo
engineered
##artile
##eptidase
mcl
##ulum
topic
##hydration
gated
cosmetic
discom
undetectable
glycoproteins
##v1
accumulating
trigeminal
receiver
laminin
##apoptotic
rash
vancomycin
diseased
illustrates
osteotomy
institutions
dysphagia
paroxys
subtle
atrioventricular
rhabdomy
18f
organized
postural
warfarin
rearrangement
promp
hrs
##imaging
get
##ectic
##oste
infancy
multifactor
cathepsin
tonic
consciousness
##asth
135
caucasian
nhl
##functional
hypothesize
##ocyan
telomere
calculate
##timal
##april
dan
interpl
##ibly
debate
bn
supernatant
calculation
viii
traj
register
catalyzed
constituents
##iop
traditionally
unfortunately
chloro
turb
prolapse
notion
128
pell
##1b
connections
morphologically
116
fabric
fructose
cddp
erythropoietin
shifted
##grp
gyrus
##aginal
fluctuations
##oate
demands
nick
propensity
electrolyte
##yelination
240
inspiratory
immobilized
autism
contract
##eria
##imetric
barr
bruc
microsomal
antin
vasodilation
vm
diagnostics
##etine
corn
conjugate
##rep
interventional
##oprost
anis
apl
##diabetic
mandatory
hydroxyp
##itudes
##genesis
##ee
expand
hydr
attending
##opathology
fum
##inder
prosthesis
fk
concerned
pock
absorbed
tunnel
scaffold
mismatch
chimeric
filaments
immunomodulatory
##oxib
discomfort
ahr
chemically
exclude
##otub
huv
moun
accordance
tightly
consumed
unnecessary
photor
exploratory
##ocycl
testes
rcts
##ulent
lives
##1r
ulnar
rely
steatosis
thiol
##amino
opinion
capillaries
pollution
perspectives
##omial
ghrelin
collabor
immunocompromised
catecholamines
subacute
µm
mpt
compromise
terminals
fused
circumference
##ulsions
cerevis
opportunistic
underestim
glycemic
anapl
aerosol
malondialdehyde
adenine
caution
allelic
##isin
judged
diverticul
##luent
##120
revealing
anticonv
endpoint
sciatic
intermediates
118
p65
##anous
##urons
building
harmful
##ends
serous
san
mmps
odont
predisposition
epidemiologic
supernatants
cerevisiae
tocoph
fibre
climate
facilitating
126
malnutrition
phi
oz
multil
##orrhea
##amol
uncertainty
abrogated
##acrylamide
firing
##odyn
microglial
atropine
strongest
bradykinin
routes
eif
leukotri
qp
intron
postmortem
##aches
hypoplasia
intended
nich
stool
##cope
interplay
uncontrolled
elevations
mang
muscarinic
sexually
uncomplicated
##uli
##atology
bases
uremic
penile
paraffin
swine
solely
synchronous
##ersion
agric
##oter
##obenz
opac
##asp
restr
helical
##omorphic
postprandial
denat
flag
afp
rpe
##glycerol
prefrontal
duplication
uroth
microsatellite
##atric
##51
ses
mediastin
shell
affective
ptx
cavernous
degraded
biphasic
unco
rm
corresponded
agricult
##idym
##36
acrom
constitutes
enamel
asymmetry
elusive
bms
meanwhile
pheochrom
sacch
erythema
mesang
policies
disulfide
##raft
##electric
heavi
ultrason
transit
forest
unexplained
midline
plates
1st
mercury
nucleoside
minority
parasitic
doctors
1993
ling
falls
concentrated
fluorescein
surrog
triphosphate
chemotactic
##ytoma
thyroxine
##olism
balanced
lox
aspergillus
prostaglandins
pyrid
sickle
bim
124
ara
adenylate
##onad
coating
myofibro
blinded
16s
##amedullary
sexes
straight
choles
germline
cong
##illa
adherent
venom
multifactorial
##bf
india
transiently
1992
whereby
otitis
america
##oal
##lofen
polyn
##onym
violence
cd14
epstein
amylase
conceptual
radioimmunoassay
ammonium
133
crisis
lea
avoiding
##uzumab
zebraf
antidepressant
zebrafish
infective
phant
moving
hpa
pbs
osteoblasts
nation
addressing
chr
antipl
quantities
ends
attend
transplants
monophosphate
enanti
geographic
toxoplasm
law
ventricul
predisposing
tricuspid
esters
##entists
acceptance
imply
igg4
syr
##iate
arabid
horn
plasmids
##98
##eries
##fo
canonical
ovaries
financial
##vitamin
##58
pyel
amputation
##bred
inorganic
reliably
come
tym
##version
osse
##opy
##oxyc
committe
necessarily
charged
ww
arabidopsis
rigid
mur
motiv
ileal
ribonucle
epididym
##xa
hyperactivity
neuroimaging
##inge
##ospasm
##iest
##inesia
##vertebral
choroidal
sides
rhod
stern
rays
excluding
macroscopic
registration
##ou
agglutin
##head
plateau
amygdala
emphysema
peer
reb
schistos
match
gangli
glycol
retrieved
##ocysts
expenditure
glycolysis
estrogens
conjugates
numerical
dair
stratification
mip
radioactive
table
electrophore
thromboxane
##quis
antiproliferative
purs
incomp
tal
inflamed
tai
synucle
compos
plc
inventory
neovascularization
ecosystem
introduce
hyperal
bnp
theophylline
gastrectomy
##agnetic
liposomes
occult
verify
gastroenter
ruptured
plurip
##ofibr
spike
extracorporeal
insect
hydrog
fren
clock
atmosph
monthly
illustrated
pneumon
erec
propagation
155
crystals
neurotrophic
stepwise
meat
gg
bfgf
tidal
puberty
diameters
lambda
vap
orthop
##globulin
electroencephal
##ettes
laryng
twins
river
009
ances
saturated
##tinib
synapses
cognition
oncogenes
pouch
seb
innovative
upr
##itum
valves
consolid
cellulose
germany
ica
##ithromycin
potentiation
insensitive
##obac
##yclic
corticosterone
##modulin
112
precipitation
noticed
##itid
bonds
nid
bath
neurofibrom
vo2
diarrhoea
##unted
protecting
conflicting
##oke
crest
##tillation
pra
allocated
synuclein
##produc
##qol
lengths
##istine
hygi
silent
##itre
surround
clonidine
survivin
resultant
borne
##requency
nemat
aps
mapped
tears
distinction
polycystic
mg2
loads
ethical
calmodulin
formal
##ipl
##omethyl
methylp
rings
lept
cone
##cm
encouraging
acceleration
anticonvuls
differently
diffus
##itate
##amb
catheters
infan
1991
dairy
splenectomy
template
pax
haemoglobin
stores
addiction
cryp
nond
##hex
hcl
estimating
##ewise
##tl
partition
accessible
##cetin
seques
cag
ageing
##oglycans
intolerance
##rofloxacin
grouped
dsm
deng
bradyc
bev
cpt
distinguishing
periphery
synapt
rl
semen
subf
cloning
ecs
theories
consultation
paroxysmal
regularly
hamsters
necessity
npy
biomed
##tisone
inheritance
possesses
bsa
postsynaptic
dpp
pcs
annexin
##chol
lactation
fuc
silica
indexes
nose
dysk
##titude
##ussis
helps
proof
failures
chit
##ocol
metaplasia
spermatozoa
170
##arse
osteoclasts
ultrasonic
##72
coordinated
centrifug
heterologous
##raphic
virulent
cet
splice
mathematical
apt
##acheal
collapse
polyacrylamide
accident
uveitis
evolving
hold
consequent
microbiota
sterile
##epile
prur
cgrp
dengue
##opr
genotyping
remodelling
pharmacodynamic
##phy
##ney
radius
##tron
dispersion
cftr
##ipped
docet
##ordant
methoxy
adc
bring
##vation
exons
atra
mucinous
##enoic
nih
stressed
pars
cornea
tibia
##ugular
fertilization
photoreceptor
intracerebral
immunoblotting
legs
hydrocarb
docetaxel
graves
methanol
##41
contempor
excitability
players
carboxy
phagocytic
inconsistent
##osensitivity
##empl
compan
##thalm
cast
existed
dysm
##46
admissions
engagement
##udin
babies
experts
invasiveness
preferential
era
ethnicity
hazards
representation
metalloproteinases
utr
abnorm
sigmoid
tea
hypercalcemia
infiltrates
##leb
hypercap
subpopulations
intral
weakly
adhesions
##ticle
phosphodies
radiof
adri
025
tubule
clarified
##ozyme
canada
colour
dendr
facility
xenograft
iat
bleomycin
effectors
expanding
enabling
zym
polarization
sonographic
anova
hv
proteolysis
island
identifies
##aicin
peroxisome
##arrhythmic
cust
denervation
anorexia
primers
reinforc
ca1
ears
immunoassay
##ecyl
switching
proline
penetrating
##562
bromide
b6
osteoblast
successive
psychosis
celiac
chapter
##phone
osteomyelitis
trap
projections
meaningful
radiofrequency
uninfected
##olys
##ua
gels
cytoskeletal
east
##udine
chromatographic
radionuclide
hmgb1
seminal
geometry
##static
dust
constip
intrathecal
reconstructed
encode
transitional
displays
knees
sarcomas
mesangial
hsc
##amate
orbit
colonoscopy
pollut
detox
publication
immunoglobulins
capsaicin
pertussis
beds
##ivity
origins
market
innervation
ambient
vagal
thalamus
job
##odermal
##pd
superfamily
##develop
curv
permits
seal
sevent
page
angioplasty
2d3
##onat
loops
##romyces
heterod
ceramide
organelles
impedance
deaf
##odys
user
##ift
vd
3t3
##traction
abnormally
plans
##uliar
##kes
lad
mandible
tang
starch
peculiar
tubes
pups
likewise
ou
##emide
phil
gradients
##ovol
cushing
union
autocrine
predicts
nyst
##31
thromboembolism
##79
pyramidal
lymphadenopathy
casp
beta2
equations
implies
##roch
internalization
disabl
eosinophilia
isotope
haplotypes
papillomavirus
concurr
##5a
##yric
##erapy
##iers
##berg
122
solubility
prosthetic
wear
starvation
crt
atresia
##ardiac
##arenal
##epileptic
##etent
adjunct
##ko
kras
glandular
swim
##anese
##osensory
exceeding
aneu
##cg
pulses
desens
preserving
seventeen
##rophin
##roma
judg
##ethanol
foxp3
positioning
covering
illnesses
desired
leishmania
ards
bad
bph
carbox
##itten
ketamine
cow
bmt
hepatoma
qrs
parasit
##rogl
histocompatibility
shortened
nasopharyngeal
pear
paid
symb
wider
polymerization
nl
firm
hfd
##olym
velocities
adjunc
sensation
collaboration
threonine
myopathy
erectile
gallst
##ipr
concomitantly
##aromyces
ment
##arring
cd25
malt
resembling
french
creating
etiological
modulators
missed
consent
bridge
reservoir
transfusions
powder
fistulas
##ielding
objects
aneuploid
##ip1
orn
ache
paracrine
1r
programmes
##inol
electrophoretic
##erum
ord
2017
blunt
controversy
utero
enrol
comorbidity
cannabin
ova
##avelength
sports
adriamycin
ics
transducer
assumption
leafl
gaps
cycloh
##atelet
herpesvirus
subclass
hypere
vasodilator
k562
infantile
perip
conce
dichlor
unid
distances
americans
114
deleted
away
alph
direc
cholestasis
cave
nic
angles
missense
guideline
habits
escal
dod
1988
##ap1
office
pir
tlr2
cpb
##isely
incis
coma
##iatr
chip
hox
##entanyl
##iii
endpoints
household
obsc
amd
ptc
invari
neuropsychological
amongst
tnfalpha
qpcr
mimicking
polymorphonuclear
eph
revised
inclusions
rising
delays
146
scheduled
apex
sulphate
valvular
perivascular
hemolysis
formalin
##onomy
##aceous
210
perp
grew
adducts
oocyte
##bor
##ife
resolve
semin
vf
mosa
stream
spent
biomedical
dosages
depended
tocopherol
nonline
##arone
rifamp
quercetin
##ypsin
insult
spik
epi
chemopre
mif
simply
iia
cutoff
skeleton
ascertain
consuming
##ita
##adh
##bean
shortly
mating
mitosis
aro
hns
highlighting
incorporating
rankl
tracts
microd
piper
wavelength
##ecific
##estin
undes
viscosity
discriminate
hypok
gonadal
##ocking
gamm
beliefs
calibration
narrowing
typing
##atally
pathogenicity
raises
negligible
comprise
atrophic
##amid
##aplan
carcinoid
mps
viewed
constipation
chemotaxis
exhaus
##fish
destro
slc
pfs
##oplatin
multin
ameliorated
##osm
cd45
cationic
##oding
bioin
elab
secrete
valpro
ciliary
preferences
tropical
diethyl
flexibility
fundus
nano
feeling
intract
##azepine
sirt1
scf
syncope
kaplan
advers
##hi
##ecre
ophthalmic
brd
scol
bran
##umines
sigma
thous
vertebrate
##oalveolar
esrd
thigh
b12
raf
icd
##izer
lutein
vasoconstric
pacem
##ucleotide
##yelin
hyponat
##izz
voice
polymers
talk
atomic
committee
adolescence
sulfur
appendic
properly
granulocytes
vincr
inputs
myeloperoxidase
##lementing
feet
##acia
reciprocal
monolayer
complained
##ogether
spiral
microbiological
fentanyl
dentin
chemoradi
hunting
acne
ciprofloxacin
##acizumab
extrinsic
bacteremia
androgens
allergens
foundation
##mi
electrocardiogram
ventricles
altogether
oxytocin
percenti
latest
##ectomies
obstetric
lic
lobes
labour
sacc
zeal
dib
137
chlamydia
competence
vasoactive
spots
fermentation
screw
##oxal
thromboembolic
##adine
dtpa
h2o
vesicular
hemostasis
nicotinic
cofactor
halothane
##idic
behaviours
phosphodiesterase
##ionate
varices
##azosin
cyp3a
purpura
attained
fibrinolytic
demyelination
imprin
flaps
cscs
##xone
aux
physiologically
mitogenic
antiphosph
specified
##ophthalm
intellectual
cooperation
proliferator
scid
##aa
disabilities
urtic
pcp
waist
obstac
cruz
hrv
##oking
hypoxemia
cyclosporin
expensive
##terolateral
burns
guanine
medicinal
leaders
discrepancy
##kal
##uge
##lated
posture
tar
taste
deduc
vte
harboring
ivig
octreotide
contraceptive
generates
deterg
transgene
rej
leprosy
exagg
annot
neurotoxic
dyslipidemia
mptp
##bp1
##chemic
grav
rid
clot
hygiene
occasional
adjunctive
came
##97
##urethral
##f4
primer
gadolinium
##umps
herniation
biod
abstr
assembled
##saturated
primed
eradic
bonding
gata
hen
neurole
tp53
tetrahydro
organizations
prerequis
##ogr
productivity
sclc
##ander
exploring
##oxetine
##olipids
lysosomes
insol
alop
cadaveric
larynx
dependency
##gran
amine
hypop
provider
##ulator
lpa
sensors
144
pter
hnscc
neuroc
mimics
intranasal
instillation
po2
##onates
##rednis
epitheli
condyl
gef
phon
##yx
cou
##ji
centered
meningioma
isoflurane
rnase
qrt
effusions
##orphin
##ican
france
##omycosis
volatile
outline
##acetate
approval
kle
stably
alopec
immunohistochemically
##angitis
xenografts
##gus
glomeruli
##ml
demyelinating
sharing
##ena
nonster
narc
##iodarone
1986
neurones
modelling
##algia
lysozyme
ali
scavenging
ez
stents
##timulation
pharyngeal
tender
utilize
##ysaccharides
pneumothorax
vdr
##recogn
megakary
tumoral
paran
histories
methyltransferase
flora
aven
crs
##onymous
confusion
district
##ctional
displaced
drastic
jak2
intima
province
aggregate
equine
hydatid
oblig
leaving
sinusitis
##icted
encapsulated
ovx
carries
geographical
prothrombin
intensities
buccal
veterinary
scope
appendicitis
calcified
membranous
spherical
tubul
ameliorate
phenytoin
assembl
convenient
metac
ligase
ice
heavily
avid
note
scann
surgeries
##igment
sert
1c
salic
##asias
cd20
scenario
barium
##omnia
meningiomas
retain
neuropeptide
##b4
radiolabeled
untrans
msec
associate
c3h
foramen
intellig
aggress
evaluable
pathophysiologic
eclam
participates
insignificant
paralleled
##ythms
##ematous
ffa
methylprednis
chemoattract
lining
menopause
##ropin
igg1
sedimentation
instrumental
happ
notable
##ophyll
spong
##yseal
hus
rain
##roscopically
autoantibody
clinicopathologic
##ptosis
##ophysical
##onit
hsct
cpr
##urition
covalent
pauc
hematuria
##istinguish
##night
ether
2r
kc
gains
rms
rules
transported
scarce
##ellate
##omib
antine
##aminophen
##icine
##ths
kir
unw
icc
orthopa
repertoire
##orated
argue
ink
immunocompetent
lign
amphetamine
begun
neurodevelop
extrahepatic
autophagic
teg
cocc
enal
physically
nanom
220
blindness
clav
exponential
##inin
cooperative
##optic
depolar
anca
radiology
outpatients
predis
msi
neurophys
supra
transd
##hr
pml
chorionic
measles
updated
##aric
disordered
cruciate
##yan
mechanics
strictly
##istinguishable
carbonyl
rhythms
isomer
botulinum
##angiogenic
eclampsia
segregation
caudate
##asi
##urc
answer
vent
monocytogenes
morphometric
bag
radiologists
bulb
necrops
distor
precl
oxygenase
ligaments
px
datasets
cca
neurogenesis
neuropsychiatric
thrombi
hyperlipidemia
exacerbated
herbal
exclusive
tried
lvef
recurred
multip
subpopulation
gastroesophageal
pineal
pparγ
spectrophot
complaint
lactobac
##esus
appeti
##acyclin
kv
methylprednisolone
endocrin
##ocap
subop
##onuclease
adrenaline
siv
genotyped
##otecan
topoisomerase
ankyl
executive
##osex
##elle
weaker
antiphospholipid
dal
sug
##osensiti
jejunal
incomplet
forebrain
belongs
lacked
##cnac
cass
amiodarone
choroid
##hydrop
els
aggression
mesothelioma
3a
iodide
cooper
eat
oroph
propyl
paw
modulator
bronchoalveolar
pyro
pparg
carpal
##pyr
##opharm
couples
custom
atom
turke
transcriptome
mcs
##inator
##tains
##onus
recognizing
craniofacial
##eld
abstinence
ocul
punct
trypanos
##iceal
dap
permitted
monolayers
##rotal
phenyle
perceptual
pom
hyperin
arrays
imposs
hemangioma
enalapril
gov
forsk
peaked
shad
##omotion
dropped
furos
tinn
titanium
mediastinum
##coagul
pose
##tir
deeper
##usor
matrices
##phig
cryop
##oneu
ultrasonographic
dang
vasospasm
helped
yielding
##bd
extravasation
casein
aquatic
phenylephrine
motivation
##odyst
scavenger
acromeg
kall
cruzi
eruption
biol
somatosensory
redistribution
##emoral
characterizing
deformation
electrochemical
lymphoproliferative
indistinguishable
problematic
pemphig
obstetr
losartan
ctx
niche
divergence
topics
rotavirus
tinnitus
hypertr
##±1
outlined
##vert
italy
##iments
##phosphorylation
disrupt
##orectal
urethra
lobectomy
acetaminophen
syncy
plot
smc
doctor
##ket
##dv
searches
h3k
nu
alopecia
horse
neuroleptic
##ck
defence
reoperation
intrig
cotrans
breastfeeding
broadly
##ya
subl
adversely
addresses
##ughter
##align
forskolin
slice
synergistically
mannose
drivers
pater
detector
comfort
migratory
translated
##acrimal
thalassemia
##oresp
glycosamin
hydration
chord
##ills
beads
originate
elucidation
disin
lacks
bpd
##ympath
stabilizing
##opyran
##zomib
parkinsonism
##ithine
certif
rhesus
polyposis
bott
sorting
subdural
##urate
hcmv
york
consolidation
purine
incompletely
##ogren
139
popl
##rein
implying
##oxon
tolerant
thrombolytic
chloroquine
##esthetic
sjogren
stricture
corresponds
##arsal
histochemical
washing
erythromycin
globin
benzyl
pleth
##uridine
downreg
vertigo
ingr
dysplastic
atherogenic
##ophenyl
##p4
compact
reagent
148
##tide
thyroidectomy
transection
asbest
adrenocortical
fire
grass
##ycline
μmol
##entary
##ropor
furosemide
redund
percentile
##inflammation
figures
##etra
california
epicardial
jejunum
joh
##izable
predispose
sclerosing
zoster
vertebrates
##aneurys
gps
glycosylated
##ishing
cellul
##ek
collagenase
cic
specialists
microspheres
134
singlet
surrounded
##istein
kcal
uniformly
dentate
meq
steroidal
impression
competent
advice
saphen
pand
journal
uncoupl
acinar
neuroprotection
bupivacaine
bundles
##kd
physic
dysregulated
kap
##iteal
##itide
ash
##openic
tuber
mmc
sector
nv
calpain
##trac
##cys
restoring
mbp
posttraumatic
calcifications
exploited
decompens
capsular
claims
heparan
informative
ampicillin
maca
fx
genistein
failing
##endym
progeny
##philis
biodegrad
##iled
lifes
##oprotection
board
immigr
prostacyclin
ug
remed
designing
overproduc
immunogenic
oxalate
boundary
built
##agglutinin
seek
scattered
qualitatively
##olymph
playing
vals
hscs
##02
divergent
##amins
polyethylene
intakes
grp
military
##rolactin
hhv
deh
insoluble
cavities
nhe
que
anticonvulsant
sixth
##oxazole
intriguing
hamper
methylene
ttp
fisher
branching
orf
methicillin
satisfied
medically
##rna
homeostatic
roll
oscc
##md
##ronchial
nlrp3
suboptimal
##uodenal
nonsteroidal
ingred
hips
hypermethylation
##onergic
oxy
pacemaker
pertin
##ience
interne
24h
interruption
pim
reprogramm
dataset
##osexual
trophoblast
delir
##arcomas
unal
##ermined
##iva
cholangitis
latin
##efined
ionizing
reflexes
trisomy
antagonized
voiding
rick
displaying
oblique
attain
remnant
hypothyroid
episodic
##brand
##125
coast
##icate
insectic
interfac
ze
b7
disposition
imt
depress
##atite
##elic
##othiaz
thio
allografts
aza
arrested
##inyl
confers
hyperintens
conducting
##aec
impacted
aluminum
##erents
phosphatidylcholine
explains
waveform
##quin
grafted
equival
l5
vulv
hierarchical
pruritus
##acylglycerol
trees
pluripotent
unrecogn
karyotype
microscopically
intervertebral
5h
rhoa
##ophor
brush
spectroscopic
junctional
bap
bill
unaltered
##600
detrusor
hyaluron
lncrnas
700
aes
penicill
##thoracic
retinoblastoma
phosphoinos
thalamic
agricultural
##eprazole
accidents
##c3
antisera
##imes
treadm
alleviate
1970
cw
##71
xi
##retin
expectancy
sacral
sister
resemble
##ocutaneous
metronidazole
iiia
##asting
digit
kcl
diploid
fitted
muller
epa
ws
monomer
geriatric
appra
fluc
curvature
##atable
trast
explaining
undergoes
replicate
ets
reticular
dodecyl
codes
sensi
opiate
orthopedic
attended
sialic
coenzyme
hypokal
localize
sequestration
intersp
opn
conve
treadmill
##iline
primates
manganese
colch
##aded
##oney
battery
possessed
pole
unin
implication
planar
##kary
infectivity
trastuzumab
##gamma
##kephal
##oxygenation
mildly
echin
breed
mastectomy
##place
autoradi
##razolium
serotonergic
##using
resum
veterans
snail
##ostosis
hypercapnia
mannitol
cec
pedicle
pointed
neonate
inverted
dealing
sedentary
fibrinolysis
##orptive
s2
cd16
##ocardial
references
eug
##anus
dvt
linearly
r1
wille
abrupt
143
upa
disadvantages
impossible
ua
##ovi
recommendation
lymphadenectomy
soybean
chaperone
ccl4
devoid
##o4
serotypes
dysfunctions
##t2
##bone
destroy
lamp
myrist
debr
142
scleroderma
mycobacterial
apoa
##idia
crh
hk
alert
noneth
glutamic
infliximab
attributes
pertinent
cannab
ator
a3
orthotopic
##hed
##ikrein
branched
##asion
nonetheless
transaminase
beat
passed
autoreg
##omening
ease
leukotriene
spac
sorafenib
vmax
rigorous
##erh
lentiv
capacities
palpable
hyperv
##inally
strikingly
diurnal
smears
purkin
hrqol
ral
influenzae
hyponatremia
##ng
gabaergic
infarcts
attitude
simulate
##ipt
exercises
landmark
subtotal
rigidity
purkinje
orthopaedic
faces
bronchodil
##ymethyl
##work
chop
duplic
quantitation
willebrand
##ortisone
dysfunctional
vcam
##trate
mao
photodynamic
haart
glycation
##oem
015
dhea
proteomic
##odia
das
repressed
carcinogen
##angu
carbamazepine
dnm
##onasal
fingers
pharmacology
e6
##acs
maze
docking
sp1
##uminescence
##omyces
nitropr
cytometric
175
canadian
##tise
zo
##brids
##imetic
freezing
heterozygosity
conferred
advent
exaggerated
shrna
generations
oligonucleotides
enucle
##cholinesterase
ign
resten
patellar
nitropruss
twofold
dried
mdm2
##leting
sq
restrictive
diffraction
rop
##ympathetic
2h
speculate
deacetylase
zyg
biochemistry
aspergill
##iculum
pc12
##ece
fairly
##atization
phenol
pleiotropic
##ble
ihc
sheet
##ocalcin
reconstitution
136
regards
trophic
binary
qs
xanthine
nsaid
luteal
##theses
halluc
stap
plaus
androst
racial
convulsions
nitroprusside
detoxification
desensitization
##iguous
##irectional
scars
investigates
##plicity
tab
bpa
strengths
observers
##tiles
ozone
vertebrae
hyperoxia
lenses
141
imid
##encl
ultra
pollutants
clustered
csc
worsened
scn
insomnia
bronchitis
rfl
##ativity
spanish
borte
##worm
myelodys
clinicaltr
vibr
ccr5
##obacterium
pcv
##olymer
euthan
fluoro
g6
combine
chyl
bortezomib
tmj
nitrog
flanking
contradic
freshly
fascia
s6
##yrid
hirs
colchicine
extends
gang
##trypt
reconstituted
destabil
county
integrate
segmentation
sit
amyotrophic
workup
keeping
nondiabetic
denti
##b3
corrob
crow
ruled
xenopus
nmd
quantum
dedic
s1p
covariates
sav
##x3
operatively
delineate
hypertonic
##ogrel
kpa
##yronine
concentrate
hyperalgesia
pbl
crossl
folic
freed
waiting
##axial
##opid
atorvastatin
appetite
ups
alcoholism
##omiasis
elegans
extin
observer
orders
butyrate
prime
choices
##otherapies
##af1
operational
mrs
implicate
##oretin
##ieu
aminoglyc
##enone
##400
##emed
##ulae
pam
whit
##loy
##luor
##uronic
prevail
contour
lncrna
delirium
##bg
feces
pearson
bifurc
rage
##phth
nosoc
bari
export
eus
ivf
##iglycer
incon
haematological
##entilation
obscure
##ourse
erα
clostridium
arabin
wasting
##oxylin
goats
supplied
provoked
##iplatin
incorporate
rendered
##oreflex
azath
galactosidase
argum
titration
electros
socs
asphy
##ocic
positioned
retarded
intratum
##ivocal
perturbation
engaged
mycoplasma
leishmaniasis
antagonistic
genera
pulsatile
tgfβ
spray
##osse
##itized
##oxan
explores
replicated
lvh
immunocytochemistry
mechanically
imag
##entified
paradoxical
unequ
azathiop
mimicked
t2d
evac
antim
##inities
##hol
retrovirus
amide
closer
subtil
wb
##kb
interactive
uncon
pao2
gpr
##oneg
itp
flut
gynecologic
http
washout
at1
epithelioid
oxaliplatin
transthoracic
soph
dmso
galectin
##olk
deposited
gerd
dying
##gh
midbrain
contexts
caesarean
eds
clinicaltrials
overs
##gu
retinol
dss
econom
##amphetamine
endo
dipl
hoc
liv
arteriography
##imide
bayes
collaborative
##omatis
huge
emergent
pesticides
antiinflammatory
osmolality
##nm
chicks
1982
medicare
victims
electrostatic
1984
peep
polyun
taiwan
168
n1
islands
##ulture
infect
compensated
hematocrit
sts
succinate
##oce
conjugation
iddm
l2
##ecrosis
adiposity
rotational
##omeres
transactivation
gout
abr
##obiliary
traction
##operfusion
##nary
##iglycerid
153
##rl
parane
advoc
vulgar
sutures
drg
dedicated
chym
recycling
instrumentation
reconstructive
folds
phosphoryl
italian
physicochemical
clotting
generic
bios
ubiquitination
specificities
nitroglycer
ward
saphenous
deprived
travel
mainst
polyneu
##enders
alf
mammography
metabolized
prerequisite
nosocomial
cime
ingested
enteral
gln
searching
continuity
##opram
phleb
coat
bacilli
pcl
turned
polarized
overlo
osteocalcin
012
##ationally
fiss
mixing
vitamins
cimetidine
##atching
landscape
##ball
analgesics
azathioprine
##endi
ejac
##iliated
learn
emerge
preexisting
repressor
fourier
harmon
##ris
langerh
##osi
competing
##ergetic
lpl
stressors
gle
opg
castration
##anyl
neurite
bariatric
myasthenia
tent
hamart
grey
molars
##itazone
cd11b
##eit
oxo
##usions
vulgaris
rum
##oted
dialys
teratoma
clients
genotoxic
##obiotic
##odystrophy
metaph
##uprofen
glycolytic
stellate
deafness
caloric
cytologic
hib
tdp
scap
##odem
quiescent
##okine
suspens
trimeth
##aturity
##iders
lax
coexp
degrading
globally
satellite
fg
##jd
dbs
boost
##issive
##nem
##arate
lipoxygenase
4th
##odex
##ei
granulosa
polyunsaturated
centrifugation
##ocere
bub
urod
sentin
benzodiazepine
hrt
ppargamma
classify
mortem
lichen
neurotransmitters
langerhans
bench
foetal
histopathologically
style
##ranean
plots
trachomatis
cholera
orthostatic
electrom
titres
##ipramine
##wave
residence
##olase
nociceptive
##otechn
mechanistically
chl
sad
13c
##oxamine
wbc
overnight
rectus
unresponsive
fad
fasl
germinal
multifunctional
ventilator
chemoattractant
procedural
##itely
##iff
habitat
columns
##okines
restenosis
##evement
achievement
pharmacotherapy
declines
defibr
korean
anticoagulants
refractive
clp
##ey
embryogenesis
##unts
perturbations
nickel
twitch
evidences
ibuprofen
##opathological
##uran
##angiect
##ulse
prototype
tablet
##orum
ordered
cephalospor
##rates
allocation
##rolol
ptp
##ubated
##ozapine
afferents
dcm
neuroinflammation
##ylyl
module
deploy
spain
serologic
frail
##cranial
ascer
##avian
serving
vegetables
asbestos
mth
pla2
catalys
parasympathetic
##cer
##icile
##yrib
doubt
zol
antithrombin
backbone
##anthine
flavonoids
invading
clues
##pg
pct
##aid
dizz
##umptions
##prin
clopid
schedules
homa
gtpase
165
simplified
pgf2
##obi
##ureter
unrecognized
escc
##adone
adoption
intravitre
6j
320
tnm
discipl
oligomer
mediter
productive
outlet
l3
##assays
haemodialysis
sparse
clopidogrel
##othyronine
dystrophic
caspases
enterobacter
calcine
##burg
melanocytes
encourage
##clusive
##oves
adrenoceptors
suited
trib
remainder
##yzed
indol
substitute
aneurysmal
##onary
insects
cultivation
##ticals
durations
torque
phenobarbital
terminated
cpap
syphilis
syring
conception
klebs
##iscal
##ytherapy
transposition
##arabine
degran
suicidal
albeit
cts
tlrs
streptococci
arose
##achol
homes
sitting
hypertriglycerid
entering
neurotransmission
##iley
metat
condensation
anthropometric
theta
assumptions
##transferases
acceptor
litterm
paraneoplastic
rbcs
driver
resembled
incidences
calcineurin
adenomatous
affinities
glia
##drug
bite
mm2
discs
comment
##ersonal
ud
##tert
##yly
grain
shrink
noncoding
fitting
maturity
incidentally
commitment
##azem
congestion
##wt
twist
lc3
bisphosphonates
##hem
##aze
##asin
rom
fruits
slowing
rarity
suggestions
urokinase
practitioner
##otubes
burk
coordinate
sic
glcnac
coded
catalyzes
transs
linole
acanth
##here
lym
v1
131i
thy
clozapine
glutamyl
methadone
cue
sv40
urticaria
advancement
deduced
vibration
carbohydrates
##iliary
perfect
subclavian
##itish
hybrids
##ugr
lipophilic
endurance
collections
pss
difficile
##ottic
mitomycin
spirom
stabilize
cations
##atized
sct
conservatively
##acral
spermatogenesis
flows
##phos
nh2
opened
rotator
inward
149
##tice
gpcr
premenopausal
##opeptidase
neuropathological
arranged
aiming
proteoglycan
leaflet
hinder
##at1
ku
calculi
draining
pharmacy
##ophosphor
locomotion
master
klebsiella
bronchoscopy
moist
##etron
ovariectomized
taxa
bright
han
##ximide
##tiazem
mist
##iterp
distraction
##rof
fid
rhythmic
myocyte
teams
spatially
packed
detergent
dams
gmp
implementing
fragile
minimizing
homogeneity
enkephal
##loxacin
##eable
adrenalectomy
captured
152
fulm
sickness
limbic
histomorph
pleomorphic
coexistence
catabolic
worms
nash
plas
##avirin
covalently
cleared
relig
pull
niddm
centrally
maize
crystalline
##otoxins
##osseous
neighbor
dobut
spro
diverticulum
infertile
menisc
nach
##obutyric
adaptations
esr
warrant
stated
euthyroid
ecmo
interqu
##cl2
h1n1
neuroh
spear
##itates
mdd
semantic
telangiect
##rosine
154
##bach
vr
friend
ornithine
##leuk
pigmentation
supplemental
volumetric
porous
luteinizing
carbachol
shunting
##epid
##alent
nont
diltiazem
stereot
synovi
##atine
cbd
mm3
##igo
irrigation
easier
chimer
exceed
gdm
##cam
odor
mediterranean
bz
##borne
angio
dobutamine
reprogramming
alleviated
##ystitis
shig
##ipple
afl
basilar
integrating
pgi2
supposed
293
##rophosph
##atism
016
necropsy
milieu
ikk
modeled
stenting
combat
##atil
##onegative
engraft
alpha2
formulated
lies
independence
interquartile
debil
soleus
##aca
tagged
preconditioning
listeria
##terone
##aris
microbes
dizziness
allop
##91
unresectable
withdrawn
commonest
potently
##130
elsew
dispropor
quarter
ctla
elsewhere
147
exocrine
suspicious
ovid
leukemias
ribavirin
##edoch
indisp
neurodevelopmental
mgl
melanin
cannabinoid
freeze
holds
kain
freedom
##argin
##oblastomas
##cell
##omandibular
ending
hematopoiesis
brdu
158
discrepancies
extinction
##list
cres
fulminant
flash
pmns
dwi
eliminating
tends
basolateral
begins
##obronchial
bromocr
sentinel
##esin
17a
cholecystitis
precipitated
inbred
oligomers
willing
technically
nep
hid
gastroc
deregulation
mug
wake
tubal
untranslated
voc
fmol
tert
pseudoaneurys
lacrimal
trabec
firstly
empty
iugr
inequ
personalized
semiqu
##azolam
##rett
oestradiol
exciting
pcb
hypoglycaemia
lists
013
sophistic
transpos
dendrites
prepare
biosens
nf1
1983
camera
primate
transcranial
arteritis
narr
steril
neurosurgical
192
retraction
sediments
hydrocortisone
gluten
astrocyte
intramedullary
adduct
##endothelial
fly
realistic
candidiasis
quench
persistently
##entanil
amoxic
kallikrein
mich
hydroneph
cock
vacuoles
agen
paucity
jur
rac1
sequentially
antral
nicotinamide
varicella
##esthesia
safer
##ervical
hek
##ographs
##mph
##pic
g0
##osteron
##ught
sha
administering
doing
bronchiol
lifespan
subdivid
##idi
s100a
charts
ewes
##1a1
signatures
broil
longev
prodrug
nitroglycerin
unidentified
irritation
dith
alloster
haemolytic
hindlim
nether
leyd
##ifies
format
lbp
cannabis
mainstay
blasts
disparities
dyskinesia
methodologies
indole
persists
maintains
phosphat
hydrogel
##akers
angular
##timulated
popliteal
polyneuropathy
alve
expertise
proliferate
fvc
##lass
advancing
##iring
compares
migrate
##axin
##iters
bilayer
nonm
mtb
quadric
##ilin
##enafil
antinocic
coup
##ogeny
ppv
neb
insults
##ochlor
myd88
stea
suspended
360
keratitis
##ogroup
debris
transesophageal
alcoholics
wol
##acterium
string
bioinformatics
arousal
scanner
monoamine
rflp
drb1
annular
quadrant
ril
##ofemoral
longevity
bank
imper
evaluates
l4
vh
gases
sevo
scaling
ascorbate
sweet
cing
vsmc
immunoblot
suspensions
midw
explanations
##ason
kaposi
mari
microin
edi
arres
##esi
fractionated
organizational
##icially
##enicol
dangerous
heroin
yolk
operator
enroll
pandemic
##omalacia
helmin
cigarettes
anf
neighboring
doubling
forens
##ocystis
isomers
014
nested
distension
##apillary
sensitivities
e7
contig
##abr
bromocrip
uti
agency
antithrombotic
bending
descriptions
paste
hens
lactamase
caco
evolve
orific
pco2
decided
deteriorated
esophagitis
correc
explants
cardioprotective
methan
##orate
vigorous
##ingly
aggregated
webs
chambers
sciences
reoxygenation
extras
campyl
182
##ohep
##articular
toxoplasma
calls
sertoli
parag
psychiat
conference
vasoconstrictor
β2
serocon
myelopathy
finite
abolish
hcm
staphylococcal
##nam
cytostatic
alternating
cadavers
accr
phosphoinositide
cryopres
tips
dx
acetylcholinesterase
##itively
accessibility
adnex
trough
nonsm
underestimated
vsmcs
recap
ercp
retur
libraries
disproportion
sdf
predictable
vagina
operate
strips
h5
aspergillosis
##ocarb
188
projects
##angeal
leydig
earth
syngene
##osteal
corpor
therapeutically
justified
vasodilatation
lod
agn
saa
agarose
probiotic
atherogenesis
principally
elastin
huntington
##urations
awake
##orbital
efferent
raman
gefitinib
resembles
##regn
cystitis
thymocytes
intras
damages
anaphylaxis
##astine
hemostatic
doxyc
myogenic
barrett
campylobacter
effluent
p2x
bromocriptine
##imotor
superimp
mycobacteria
plasmac
retinoid
ais
assuming
uniqu
compensate
230
pq
spanning
symmetrical
ductus
inspection
propria
contributor
poses
##ipa
comparatively
exit
overproduction
aesthetic
netherlands
5th
##hog
delivering
secret
dor
guanosine
acted
associates
translocations
choledoch
pyrophosph
##albuminuria
wing
warrants
ascertained
curriculum
robotic
##through
dimers
fluconazole
got
syngeneic
cage
##kling
litter
microglobulin
egcg
midazolam
saving
elucidating
silicone
introducing
##ostat
##oscope
ampa
eventual
hedge
nag
latencies
##iper
##adel
basophil
msh
dht
dihydroxyvitamin
triad
quadrup
figure
palmitate
polyamine
switched
epilepticus
road
frog
gpx
rostral
mhz
catast
##94
maxill
##orphyrin
##entin
spearman
triang
doxycycline
018
0005
gar
205
www
ultrastructure
##riol
touch
900
unrav
huvecs
relieved
##nals
solvents
swimming
monomeric
overestim
sevoflurane
011
offering
illumin
femor
scientists
lake
##enh
supers
##oprolol
##ophenol
h7
acidification
behc
dominance
neurofibromatosis
gravis
pict
thickened
meiotic
technological
##atheter
ton
##ford
interrupted
kel
amoxicillin
transmural
progressing
qtc
##acl
constituent
assume
##opterin
trade
territory
tamp
slit
##96
##187
##alis
proteomics
lactose
lov
cach
pbc
##idosis
reorganization
##yridine
ec50
fanc
ltd
albino
overlooked
cystectomy
keratinocyte
hsd
systemically
behcet
stenoses
circumferential
subdivided
##ropath
engage
whenever
stat1
esterase
hyperprolactin
osteoporotic
##izers
fulfilled
whee
sociodem
##com
sirt
flies
swiss
##ido
impuls
gynaec
manufactur
fasci
##oxins
spondylitis
whites
diversion
##ondral
promptly
vox
lec
##econd
staged
infarcted
##tilled
linker
bayesian
morphogenetic
multimodal
tether
indispensable
feline
forensic
awa
mask
scrap
##onecrosis
uncovered
iri
erp
boundaries
hallmarks
sweden
##74
retroviral
neurovascular
puer
cholangiocarcinoma
acetyltransferase
pufa
##ymic
exceptional
journals
##entic
##aki
nephron
shrinkage
hospitalizations
agenesis
156
dinit
anabolic
cytosine
anastomoses
sre
regulations
plausible
mibg
inexp
glucan
decomposition
ecz
##olation
engraftment
meals
hyperinsulinemia
##oplast
h2s
dissociated
##etts
sugars
biased
cd2
nevus
otol
hematoxylin
##otocin
hedgehog
acetabular
dispersed
cx43
responsibility
hyperem
oligodendrocytes
##olded
fort
licens
perineal
##rogenesis
kingdom
##atergic
elution
mra
ors
postinf
facilitation
dfs
persisting
mutual
brachytherapy
mts
modulus
labile
##riage
##ysm
leiomyoma
worth
transurethral
##ichi
collect
##lofenac
sociodemographic
##ectoris
epic
##5y
myelogenous
loos
##aign
streptococcal
annually
substanti
proto
confounders
intraluminal
crop
kt
seldom
nowad
airflow
deliveries
documents
atoms
##avicular
##atoxin
t1d
advis
father
nowadays
fim
##upt
antiangiogenic
imaged
prrs
evans
immunosuppress
advantageous
altitude
paternal
penis
##icip
##uated
constituted
capsules
callosum
carotene
thro
pectoris
ticks
distortion
injecting
infest
electromyography
occlusal
aav
astrocytoma
strip
dab
looking
##azepam
epilept
tcdd
quadriceps
trapping
##kii
##apsed
adjustments
##anges
desat
##oplegia
fec
thorax
pubertal
psychometric
checked
1981
adsorbed
coexisting
trajector
chemoresistance
750
stock
obstructed
erbb2
till
flor
hydroxytrypt
udp
##otropy
filters
campaign
myelodysplastic
##iiod
train
choose
cps
seronegative
ependym
thermodynamic
adamts
proteome
hms
interm
trajectories
sophisticated
ascribed
##urt
esc
infrequently
017
isopren
polych
intravitreal
mail
##amphenicol
##157
vegfr
##cript
##ineral
shut
asthmatics
sensorimotor
streptoz
discussions
##uling
inhab
emboli
shunts
##ecu
antich
thaw
disrupting
contaminants
abdom
ipf
##ieties
intent
spa
280
hps
hyperc
preincubation
2c
situated
triiod
##tii
atmospheric
##anchnic
pdac
urodynamic
employees
##annabin
agree
##igenous
abstracts
ded
inpatients
ribosome
polymeric
omeprazole
rfa
carcinogens
shh
moved
aed
hemorrhages
spasticity
symmetric
rifampicin
incorrect
enterocol
disabling
tech
leave
potentiate
##oviruses
ecd
antiapoptotic
facet
cra
droplets
##aut
cutting
##cysteine
##ulline
opt
energ
pneumonitis
hole
maximize
theoretically
##erver
fmd
supplementary
weighing
farms
mdr1
##imeter
glutamatergic
lengthening
tonsill
consumers
amenable
bacteriological
hydroxylation
senile
hev
##anat
dutch
ligated
##etus
hydrolase
lpr
##amides
consecu
lactobacillus
phagocytes
rdna
cyp2c
##ffer
sinusoidal
tetrad
artifacts
p2y
donation
relieve
colloid
modules
##apsular
imperative
cha
meningeal
immunophen
reviewing
##fraction
##eximide
157
arthroscopy
realized
buffered
appearances
ams
gaze
visualize
homologue
occupied
unsaturated
cd10
##vel
##triatal
gastrocnem
##iclovir
promyel
cct
##alic
##class
aldehyde
dba
pyrene
symmetry
sarcoplasm
270
##ytomas
##echoic
dext
##ellosis
naphth
cycloheximide
##emp
consecutively
manus
etoh
intracereb
osteogenesis
tnbc
centrom
goiter
hypoglycemic
##ocyanate
monoxide
circums
hemangiomas
offset
unpred
municip
gingivalis
proteoglycans
bottom
triaz
bronchoconstr
inexpensive
pyelonephritis
lot
##orel
##i1
c18
diphosphate
pcd
##uctal
hrp
nz
oat
vz
lysates
aneuploidy
progresses
discrimin
inducers
##uptake
splenomegaly
emulsion
england
spikes
schwannoma
diclofenac
cid
matern
relates
pahs
exempl
##orphine
myristate
win
bovis
epist
##wa
ao
micelles
##know
##ama
eccentric
silico
##alcoh
mans
approached
hbeag
microangi
parkinsonian
ceramic
brazilian
stains
unsatis
reconstructions
phthal
151
##beta1
stature
srs
korea
ivc
intuss
dlbcl
hyperrespons
gsk3
macromolecules
demonstrable
xenobiotic
##birth
reform
entrop
##opamine
##000
##py
overdose
sto
##tigmine
screws
chondroitin
##iber
##ca1
indigenous
pthr
positional
freely
chow
eq
##osarcomas
semiquan
sy5y
##acetamol
dividing
##oride
tic
##opathogenesis
##rodesis
conformations
hemipar
cilia
hampered
##acholine
##encephalic
regime
prostheses
##aenoic
msa
##enn
##onol
crosst
##orphic
##hips
matr
##observer
ddp
british
##oreceptors
flt3
##osteronism
clamping
planes
degranulation
fuel
ria
kyn
##oprim
##imumab
##iles
transwell
strokes
antipsychotics
lipolysis
mmr
reuptake
rct
disintegr
gastrocnemius
turkey
##onitrile
infras
arteriolar
anchorage
bos
sgc
##bing
##elecoxib
##937
painless
visually
refin
seq
thalidomide
plug
##rosome
ovalbumin
rag
##ulic
macrol
splanchnic
encounter
quar
hil
prazosin
##aryl
celecoxib
baroreflex
hairpin
synergy
intraves
immortalized
chloramphenicol
anesthetics
hilar
tolu
##yryl
bcl2
minus
##omyelin
spores
enorm
discoveries
##enzymes
ere
fasted
cmr
hyperh
faced
subtraction
##renic
hypothetic
gist
funding
acromegaly
reinforcement
thyrotoxic
odontogenic
mexico
micropar
compressive
intussus
synovitis
approximate
analytes
3β
##endix
17beta
##ocephal
misdiagnosed
visited
lingual
##ollagen
185
##ostal
##ycholic
dol
russ
nonf
counted
cpa
177
transduced
org
monocytic
##okes
refined
##acrylate
archae
schizophrenic
cited
p300
combines
trypanosoma
hemip
chemoradiotherapy
mant
attracted
capsid
shapes
chondrocyte
pms
1ra
throat
##angli
permeable
nets
think
##idis
##atide
delineated
tensile
nematode
##ania
expresses
enormous
possessing
##onide
microwave
jux
##otomies
##room
##116
appreciated
##uin
drops
##ethanolamine
##opeptide
myofibroblasts
##thi
hypogonadism
sild
leucocytes
osteoblastic
hur
##tigens
tripl
dura
pda
##olipin
##olis
kyoto
sst
fetoprotein
##graduate
sensorineural
##oreactive
latex
##ectory
gating
##adenoma
supras
pathologists
174
historically
caring
colleag
ltp
##ocent
addic
harbor
granulation
shares
scs
urological
eukaryotes
kup
peritoneum
dmd
considers
##±2
##iated
##mn
borrel
inconclusive
ada
##ventive
synapse
cnv
asn
allosteric
biophysical
interneurons
unpredict
##epines
appendix
worksh
bun
oncological
##occl
moieties
crossing
condom
159
semiquantit
synthes
schistosomiasis
workplace
store
counteract
zoon
hydroxyproline
##apatite
antitr
sumo
myopia
thior
acknow
heterotopic
trajectory
oils
algin
lhrh
activin
vascularization
enrollment
convert
hypoperfusion
dressing
hyperre
desire
antineoplastic
urgently
801
paracetamol
temporomandibular
vn
##apeptide
sweat
profoundly
progestin
refers
malabsorption
suprav
intelligence
sildenafil
purulent
reviewers
psp
hydronephrosis
##nv
swedish
##oned
##ham
revolution
schemes
cream
##illes
security
##zers
fviii
##roventricular
oligosaccharides
vv
##olem
##isal
##nu
cotton
thoroughly
cobalt
##ometrically
lithotr
neuropathies
crosstalk
vagotomy
carrage
psi
ocd
tetram
perone
motoneurons
oblit
##clim
initiates
intraoperatively
enkephalin
cta
putamen
intracerebroventricular
quantifying
crossed
methacholine
retinoids
dict
constantly
calcitriol
##ivudine
dipyrid
subtilis
##artum
interpersonal
constitution
cd28
##omain
##antes
htert
225
poul
recapit
##ony
probing
##ancerous
##agens
scot
260
breakthrough
pun
immunocytochemical
gleason
##umbens
##oronary
repolarization
sod1
representations
##erally
calor
##opancre
##otyping
chemopreventive
##peridone
attentional
##urinol
actu
heads
cardiotoxicity
tampon
aggressiveness
discriminant
##agre
barb
##timulatory
degrade
##immune
##att
##ein
hepc
teachers
##imers
32p
programming
sarcoplasmic
paradig
client
intratumoral
serology
yag
ags
haemorrhagic
linoleic
##lymph
elongated
##ynucle
subn
broth
suction
metrics
drives
mimetic
asparag
erythropoiesis
poster
glycans
lewy
u937
##ldl
intrag
humeral
quasi
migrating
contracep
pictures
lem
oleic
conduit
ionophore
odc
##phe
filamentous
transpar
##ifferentiation
##actyly
##olide
##bryonic
sla
##ken
aided
##epsy
lesioned
icr
##unar
styl
stratum
ensuring
kupffer
##olysin
##olization
##pos
dth
cultivated
##rb
cholester
debilitating
##bles
contraceptives
covers
##eving
biofilms
specialty
tsa
streptozotocin
nonun
g3
directional
mcc
convinc
belonged
hypophys
##uximab
everyday
tu
##d3
cingulate
coincided
valproate
sphingomyelin
##imentary
##illing
fitc
granulomatosis
gathered
zeta
toe
bullous
proposes
immunoreg
##ibrio
infiltrated
thiamine
astrogl
##ospermia
tomato
##arth
invest
antioxidative
wit
bod
##zz
ethics
##aterials
##endazole
##ulph
164
##enet
stake
assignment
arsen
mong
diuresis
glucone
35s
semic
caregiver
inferred
fluxes
banding
ctc
fluoroqu
desorption
stretching
trimethoprim
##astig
purity
##meth
permissive
##82
concan
##ubertal
bib
gonadotroph
temporally
fluoxetine
antihist
interdisciplinary
##ognitive
topography
isoelectric
curet
imposed
interl
psc
advocated
unfolded
civ
correlating
##itter
rabies
##76
implicating
embolic
administrative
##itidis
thumb
psychomotor
##esartan
supraventricular
attenuating
doubled
poultry
fap
stressful
195
##mandibular
normoxic
trav
##ewing
thyrotropin
asphyxia
elicits
264
##oviral
stump
whitney
probnp
##ods
chromium
cz
cd133
anoxia
flo
##cv
monomers
uniquely
villous
kinin
bever
##vic
pgc
orchestr
reserved
grip
neuropeptides
amines
sport
initiative
strictures
##arterial
listed
##omon
replacing
dephosphorylation
scrotal
optimizing
##imensional
tpo
proapoptotic
polysaccharides
identifiable
reentr
nevi
##gamm
thinking
endocardial
k1
aminobutyric
rcbf
albuminuria
counterpart
smallest
submandibular
responds
rew
inspired
cecal
benzodiazepines
paco2
colleagues
benzo
kat
contracture
oropharyngeal
entrap
miscar
sounds
##alcoholic
lrr
haemophilus
masked
outlines
thymoma
him
pge1
serov
##yrene
##acillin
wiley
neurob
astrocytic
##born
federal
pharmacologically
stoch
chiral
editing
dk
hindlimb
steat
##omedial
##dens
epcs
pericarditis
##quilibrium
##adminis
##whel
prescriptions
vegetative
triiodothyronine
parametric
##opent
##uma
pthrp
erosions
##89
reality
leucocyte
deregulated
##ubs
myositis
trin
162
##olated
##omn
calcane
snr
groove
vzv
overwhel
1500
evening
##tria
pgp
standardised
congr
pepsin
places
##ismus
##osterol
hypn
permeation
acycl
maximally
steep
##6a
##lys
stochastic
lumin
##netium
accumbens
##kl
pleu
##aggreg
##ogastric
filtered
bioassay
unsatisfactory
bcc
consumer
##allium
##adenosine
benzene
##sd
iap
##ochond
facing
overgrowth
histones
classifications
cfs
upright
recre
nanoparticle
vicinity
occlusions
hypertensives
encouraged
##avalin
jump
exchanger
##odynia
pfc
##igel
dyes
fluorodeoxy
##ocortical
modulatory
calibr
##imid
coming
choosing
strands
##ospital
fertile
preh
fgfr
##tail
##obia
##delta
troch
##ochondral
egfp
antimal
littermates
danger
package
neurophysiological
pentobarbital
hpr
bear
##wi
pef
vapor
endotoxemia
##iaceae
transv
nnos
chitin
aggravated
iter
sis
##f3
craniotomy
emphasizing
myoclonus
hypocalcemia
endarter
anaesthetized
tow
orifice
##ara
##rolithiasis
quartile
tamponade
lyme
##urred
complicating
thrombocytopenic
lie
tms
tca
guiding
l12
exhal
##ohex
vad
mcao
vhl
foster
##arrays
010
nong
going
egr
threefold
paranasal
##dynamic
appreciable
impulse
oro
mineralocortic
212
immunologically
micronucle
suggestion
##aresis
neglected
cel
##teat
splenocytes
thousand
echocardiogram
203
valgus
##aginous
multist
sulfide
gravity
tetanus
hepcidin
ictal
sorb
postis
catch
sphingosine
orange
cassette
iran
##osyltransferase
##eptin
adaptor
notch1
##ulous
restrictions
chrys
qtl
hyperkal
stig
radioiod
concanavalin
diluted
embryonal
inactivating
neutrophilic
bifurcation
anionic
uf
hydrocarbon
ikappab
photosynthetic
##olinergic
carc
emo
calculating
fibros
maneuver
##ifier
crown
rantes
localisation
households
glycer
##cale
##oflav
regenerating
consul
kyph
paget
##93
endonuclease
gynecological
##inia
##athers
legis
cytoprotective
##elected
gavage
sew
guar
##ectasis
continuum
neoin
kcn
gallstones
##osupp
##omorphine
durable
vegetation
shadow
bloodstream
falling
##amole
hydrocarbons
##ropic
nci
standardization
carbonate
helping
hyperresponsiveness
fibrom
##vertebr
isoenzyme
subfamily
indoor
sepha
try
accumulates
xer
##itants
##utation
files
genit
oncoprotein
shaft
##ogaster
increments
##yria
amorph
##imil
##atched
subspec
grand
hcy
tenderness
compositions
##2r
tetrachlor
lu
cms
microarrays
sepharose
sheets
##litazone
favored
##osurgery
stereotactic
couple
##84
contextual
mcr
##tubercul
interacted
comes
pvr
avenues
##atility
##itil
##ago
vulvar
demethyl
hither
##tention
normals
antimalarial
mns
bomb
counselling
restraint
concordant
adopt
acyclovir
drastically
reacting
genotypic
holding
##cus
irin
hypot
##igmentation
##xin
##fulness
glycan
bcs
preferable
infecting
##bu
hydroper
ankylosing
bridging
inflow
1979
inhibin
trust
phosphatases
hitherto
019
uncoupling
followup
##itrite
##ofibrate
statistic
##itan
transcatheter
hemispheres
agencies
##nac
ppd
concentric
accidental
167
pyrimidine
172
carboxylic
isra
suitability
transcriptionally
harves
aii
cystatin
underpin
##rement
multiform
##cens
thc
exudate
teen
heightened
##baric
kinematics
oce
cords
imping
166
bronchiolitis
pesticide
##pm
preload
nfat
binge
washed
distinctly
defenses
##oniaz
tka
gaining
evacuation
hco3
irinotecan
##lysis
dipyridamole
canals
nationwide
stigma
electrophysiologic
opposing
telomeres
reactiv
msp
221
artem
##xime
commens
silenced
pitfall
isoniaz
invariably
tracing
hbc
tee
gm1
collective
serr
unt
alkylating
heterozygotes
pis
ryr
##diagnosis
##exual
governing
##cc1
declining
afforded
##hu
reactor
##ologically
antitrypsin
panic
##alg
##iculus
atypia
maldi
lose
intracardiac
metoprolol
hyperthyroid
uvb
medicaid
sibling
a23
performances
gil
pharmacists
fabricated
neighborhood
mvd
biochemically
taxol
homing
##arf
fork
biceps
intercal
lastly
promyelocytic
prematurity
##atography
huvec
ultrafil
intrathoracic
bromo
metacarp
coagulopathy
podocyte
readmission
traine
186
extracranial
managers
##jejun
eicosan
hyperbaric
localised
bronchus
patterning
cholestatic
ggt
##eutical
anhydr
hyaluronic
marginally
slides
lamellar
audit
compartmental
ferric
energies
endorphin
##opharynx
mansoni
inev
ghrh
adds
##ections
tmp
unresolved
7th
entrapment
shifting
superiority
##epi
electrolytes
sharply
gastroenteritis
urs
##eath
fibrillary
radiologically
clonogenic
##86
deaminase
nonalcoholic
communicating
##osacral
creates
pgs
grossly
##apenem
khz
exocytosis
oligo
##ophores
##ostom
annulus
noradrenergic
##ju
solute
peroxyn
xp
##ulo
stoichi
cities
deals
mosquitoes
connexin
214
psychopathology
##hen
secretase
ed50
##ocereb
lamivudine
amil
japonic
pacific
vitrectomy
##famide
postulate
ki67
reproduced
fis
secondly
oxldl
hyperemia
ctgf
clarithromycin
##can
##plen
##otum
##ranul
##2c
hernias
cholesteat
achilles
debated
monte
frames
hypothermic
prb
caveolin
##atrial
capital
ended
##torh
parity
humer
##idate
outward
##kat
acceptability
paradigms
genomics
recognizes
condyle
configurations
manipulated
##odular
##serine
##rosterone
ecosystems
mastitis
eczema
##epo
longest
c1q
##ordial
thoracoscopic
hnf
propionate
trpv1
##ximal
interferes
##riting
lobular
metabolically
questioned
unpredictable
chemil
hypothetical
allopurinol
hemiparesis
phal
microalbuminuria
acetylcysteine
##ulators
223
equil
plasmapheresis
reaches
lrp
eralpha
ketone
ctr
mite
automatically
ortholog
mtorc1
##forward
political
##east
mpp
rises
169
posttreatment
ici
amorphous
escalation
##ustion
feel
anthrac
apomorphine
disposal
workload
specially
blockage
##oidy
##umination
uridine
analytic
coactiv
nts
intussusception
##opsin
olive
este
hydroxytryptamine
prin
μl
isoniazid
contradictory
convenience
germination
prokary
##×10
adenoid
costly
hyaluronan
cdh
##uates
invade
##iling
stz
##planted
contrasting
cognate
204
##ocatal
##uanidine
manipulations
texture
immunol
stopping
tuning
solved
ethn
##osensitive
i2
slowed
overlying
bursts
##operitoneum
objectively
##hold
pst
##him
##fas
itrac
technetium
##atemia
fistulae
##actam
##anil
bedside
worked
suddenly
gp120
b16
##ipsy
mount
esi
practically
rebound
meniscus
hypovol
avium
##optysis
##odine
coeliac
161
diag
##126
aphasia
blacks
163
arrival
##ouring
recanal
emotions
cd56
leptosp
dihydrop
methamphetamine
rods
melanogaster
wt1
##101
181
roughly
wine
##itides
fun
##eres
wal
##encephaly
polyd
##fused
##ellae
protozo
prey
10th
characters
locoreg
##atent
sublux
clade
discordant
peroxynitrite
osteonecrosis
freshwater
ideas
dinucleotide
incen
mtc
##ethal
readers
pect
##gly
amiloride
apap
elig
housing
traf
##omyositis
seph
fumig
pix
je
##yline
pgr
##eic
virological
183
##adex
viremia
##folate
p50
cervic
##aglobulin
##bling
cd36
##d6
cardiology
cylind
redundant
beef
compulsive
drought
intravesical
##feri
permeabil
alarm
integrative
sars
##μm
##etom
pacap
chagas
ltc
itraconazole
taxonomic
##ocycline
dystrophin
presch
went
##vd
##rogenital
ancient
##osulf
pseudoaneurysm
senior
##amyl
operon
176
elemental
carcass
glycosyl
acclim
colectomy
oophor
fusions
statement
ezh2
gins
cryptospor
psychiatry
muc1
mirror
wilms
weighed
versatile
##eas
ovine
smad3
##ofer
myoglobin
##exia
##plates
feelings
disequilibrium
efficiencies
empy
b27
vacuum
monoc
##epsia
vitil
reader
metabolizing
electromyographic
bioactivity
dish
interested
hemic
exacerbate
##81
indolent
paragangli
stic
palatal
gastrod
meniscal
quenching
##ifers
morbidities
abduction
##imine
pemphigus
drying
dorm
circumscribed
warning
##ohem
256
libitum
##oblet
placing
translate
##ollen
monoph
lectins
unstimulated
alginate
##net
enucleation
lk
infarctions
circumflex
closing
mcd
sas
##param
phrenic
trout
sorption
initiatives
message
##mr
macaques
recoveries
##icc
bmscs
erythematous
0002
dyspepsia
cardiogenic
legion
habitats
retest
elasticity
a23187
##omata
##ower
p75
absorp
checklist
bronchopulmonary
dsa
deemed
milder
glycop
subch
cholesteryl
##ira
rectif
proteas
breeds
leadership
reapp
##opharmaceu
##ospinal
##calc
glomerulosclerosis
connecting
rhabdomyosarcoma
##phi
cytolytic
placentas
206
classically
spirit
##facial
packing
tympanic
hypoplastic
loose
parturition
dialysate
welf
goblet
##opropyl
arachnoid
##83
##opoietin
oesophagus
thinning
compelling
osteoarth
nitroso
mdct
immunosuppressed
gallstone
favorably
ncs
##aph
certainly
##otracheal
methane
bronchoconstriction
##yz
esteem
doca
##wl
seventh
prostan
pertaining
##ecretion
superimposed
##sr
mbl
mole
gauge
normoxia
catalyst
hook
undiagnosed
##oglut
##mer
pseudotum
##osylation
convergence
telangiectasia
devised
aca
wd
burgd
anchored
equipped
steadi
nitrous
cetuximab
ira
ileus
welfare
cancell
aligned
fes
natal
eligibility
staphylococci
pointing
hydrops
##oglitazone
##asma
involunt
iκb
frank
h9
lor
##relations
photosensiti
cortices
fluorodeoxyglucose
coincident
burgdor
ehrl
antrum
aseptic
sider
encompassing
comprehens
##ourinary
202
career
##transplantation
arbitr
##uo
##ini
hypertriglyceridemia
vascularized
residential
##arby
anaerob
sustainable
nil
pioglitazone
comprehension
##ecanoyl
defines
swabs
preventable
seroconversion
gun
evolutionarily
burgdorferi
##ously
##ocoagulation
##odynamically
aplastic
##itidine
propri
svr
184
transvaginal
##dividual
##fully
neurochemical
##arct
coadminis
ppp
odn
steel
cachexia
##k3
mitigate
##bt
ordinary
steadily
preschool
clip
platforms
pick
fcr
lesional
##yrinth
pyrophosphate
##acea
microvessels
##exy
salping
plethysm
nyha
rhabdomyolysis
maxilla
dms
##pv
swollen
tremend
l1210
##lt
cbl
formaldehyde
physiotherapy
row
claudin
tha
thallium
##enedione
brca2
answered
anticholinergic
cd19
nim
paresis
stasis
hydroxyapatite
hepatobiliary
1978
expense
1975
rosig
##ointers
myeloproliferative
outd
##lational
accelerates
g4
spacer
repetition
dimerization
periventricular
bronchiectasis
enfor
lmwh
cdk2
ems
pi3
##unctional
pm2
interpreting
adoptive
222
dibut
##ears
##onge
implicit
eoc
##apical
obstetrics
##ront
##ault
##aned
stemi
correcting
##elity
titr
urogenital
d4
b4
unsp
cope
oval
genitourinary
rosiglitazone
aba
anions
bidirectional
sustaining
211
snap
rbp
yrs
ewing
naf
ccl2
tz
##uman
premalign
tki
heterodimer
hyperglycaemia
simulating
##sulf
norway
##ystemic
usp
catalysis
invertebr
gerbil
speaking
##butamol
myofibr
clo
charges
podocytes
pns
epididymal
adequacy
187
##4002
##qi
exhaustion
##burn
##5b
receptive
ssp
denervated
deoxyrib
curettage
continence
xx
vitiligo
confirmatory
##ulas
eae
internalized
##ointens
##imeric
spines
no2
minocycline
cba
##aban
analyzer
cryo
b3
occupancy
remissions
adventi
reversing
pumps
amoe
##oconjug
mst
unusually
##ostigmine
coum
mics
committed
scanned
atlas
oncogenesis
viewing
autoregulation
salbutamol
bps
opinions
lysophosph
justify
avascular
crush
instructions
cdk4
myelinated
##wich
anxi
024
wc
cem
looked
marital
hemophilia
##506
radiologist
eia
tbars
neuralgia
bca
atria
nhs
hyperuric
tubulointers
nab
antimicrobials
merely
posterolateral
nonresp
antec
fove
coal
solving
complaining
nervosa
##electro
pik
##vhd
partitioning
pust
##odomain
replicative
vice
c7
##ohum
##orthy
alfa
syl
anisotropy
nh4
##arians
##enolol
v2
jejuni
gj
pitch
##cil
autonomy
epidermoid
premolar
vibrio
opens
ops
anatomically
##ussion
hypophosph
196
advised
locoregional
friends
neurofibr
harvest
pcbs
multinucle
transdermal
##dialysis
manufacturing
matrigel
ptd
humor
arteriosus
ned
discriminating
destroyed
##une
##anserin
erosive
complementation
##tiform
p70
msm
varieties
##alva
hydrolys
phenotypically
stimulator
digested
##junctiv
excited
insertions
lying
dispersal
alkaloids
cd95
harvesting
xr
amenorrhea
said
damp
toxoplasmosis
conductivity
##180
perforated
xa
lipoma
vegetable
actuarial
biotechn
multiforme
csp
cardio
serially
##word
vg
##odeoxycholic
lun
torr
juxt
radiographically
speculated
##aired
synchronized
171
ssa
interferons
123i
tma
##acental
purch
bell
afterload
carlo
nir
azo
confluent
mastoid
##phenol
ohda
immunofluorescent
voxel
##dg
instrumented
murm
hyperventilation
vagus
neurocognitive
##icide
##otrypsin
##itories
intracoronary
##rophied
randomization
atcc
apd
epr
mglur
photographs
ingredients
pediatr
##oposterior
flare
##itative
sln
##145
mediation
verification
myb
migrated
xy
021
antith
peptidase
polysomn
ltb4
ceftria
ceft
involuntary
vertebra
urate
##lotinib
##picuous
cd68
pores
adrenocortic
178
cyanide
intratr
pupil
dwelling
6th
peroneal
acknowled
eluted
##ophagy
375
valsalva
ly29
ptosis
seriously
##implantation
scintigraphic
tracheostomy
synd
passages
thyroglobulin
##opian
ncr
microparticles
mmf
radiolab
##carb
restores
##itz
##opros
unmet
endoscopically
jurkat
atenolol
blank
##oporphyrin
tolerate
fle
motile
fon
pph
semiquantitative
bra
fission
psycho
##ubiqu
synt
goat
contiguous
dac
estrogenic
titre
extrusion
023
mineralocorticoid
heterochrom
mz
acetone
extran
therapeutical
divalent
compressed
##gut
crash
infiltrative
ltr
leukopenia
versa
##omatoid
execution
mutans
iol
o157
##map
neurofibrillary
manifests
zik
blots
##ozoites
cystein
bart
tram
caucasians
angii
##arith
carn
antidi
metallic
worst
amlodipine
##cinosis
##92
anthracycline
hypokalemia
organelle
mthfr
endarterectomy
otolaryng
aeds
11c
capsul
flavonoid
instant
supervision
premalignant
##df
tace
concentrates
sga
retinitis
ban
handed
repub
readings
autoradiography
entail
electromagnetic
##ogluc
regimes
##orie
specification
##osaminidase
tetrazolium
postp
dentists
cbs
quit
##porter
##aortic
ganglioside
cbz
erlotinib
pleura
sponge
normative
pea
averaging
homogenate
blm
underlies
resolving
##band
obliter
oscillatory
manuscript
##androsterone
pvn
308
recon
028
contraception
##h2o
txb2
##pray
ori
suppressors
interconn
##fv
sandwich
senescent
027
cep
adhere
##cephaly
tcp
cred
216
ceftriaxone
contraindications
##isk
phosphatidylserine
niv
interrelations
periodical
carrageen
##ytosis
procollagen
hardly
saw
##ipenem
##eto
173
player
jn
minimized
tpn
gravid
##ycle
melanocytic
pyrrol
tracers
##elastic
##oprop
stenotic
codons
##uistic
solve
microinjection
lactating
##ithin
oncologic
##razine
##androgen
projected
norms
##tone
sebaceous
##enedi
immersion
##oreduct
gss
macromolecular
##entery
fragility
simian
immunology
##oconazole
preg
mounted
navigation
olds
hyaline
roux
##ariae
drinkers
3beta
tympan
virgin
narrative
##oduoden
excretory
##onolactone
incisors
insip
cb1
dnase
##ifl
perine
postischemic
probabilities
therapists
insert
microvessel
pontine
##anter
denv
tkis
unil
undesirable
stems
demethylation
phosphorylase
##odextrin
chorio
completing
vasomotor
##kc
microfil
cryoglobulin
intrarenal
multicent
regressed
##trial
virions
##acyclines
undetermined
achr
drawing
flatten
decel
bird
carcinoem
subscales
##quinone
topically
presump
precede
ridge
histiocytosis
1960
dcis
ldlr
fidelity
corneas
##iciting
2018
fumigatus
sunitinib
lithotripsy
dar
eta
tcc
##no
ccs
pedig
##ofuran
clind
occupying
cbp
##ancing
adjuv
anchor
empyema
##renorphine
dichro
fallopian
paraplegia
oculomotor
trimethyl
tia
jet
hydroxybut
endotracheal
mexican
##amptic
##ourished
hazardous
##ocarpine
##nish
1966
absorbance
##foot
anorectal
porphyrin
##vac
intragastric
##elvic
##ishment
daughter
wheel
predisposed
##phalan
tmz
makers
pta
hgh
##ij
medulloblastoma
##acid
discussing
witness
purely
##si
landmarks
mcg
foxo
bloc
##ynch
upward
provocation
subchondral
##arum
savings
moisture
continuation
taz
neurofil
calv
allodynia
strab
corners
##ococcosis
hydroxyd
notes
##urge
equivocal
herd
retaining
clindamycin
intercourse
neuraminidase
psychotherapy
ftir
calorie
lacz
flutter
intramural
##oca
thalian
sdh
spirometry
##eterm
##kg
##asculature
extramedullary
ura
sema
##q11
thaliana
succe
logarith
holl
leiomyosarcoma
villi
neiss
##iant
##anthin
writing
abortions
gdp
formerly
insipidus
wish
hne
nonr
obsess
carcinoembryonic
adenylyl
##mentum
amelioration
pach
combinator
208
disparity
carin
noxious
groundwater
melphalan
cmax
acetaldehyde
responder
actinomycin
republic
prepubertal
ellip
paramount
suspect
guarant
frailty
invaded
cyp3a4
olanz
##elan
heritable
t7
css
kp
terminally
hung
exhaled
mastic
danish
volt
##ophytes
coastal
illumination
thousands
burning
syncytial
022
##osfamide
papilla
c5a
##x10
b19
mgmt
##ersed
clonic
obt
resili
humerus
026
toxicological
provinc
potato
##iaa
conjunctivitis
wilc
subling
##omogene
##iferous
trophoblastic
blo
olanzapine
unselected
conclusive
carrageenan
thiored
adma
##onch
lymphedema
pitfalls
macroglobulin
solubilized
lined
##uronal
peers
incisions
tetrap
descent
035
circuitry
shallow
spleens
##oproteins
catalyze
cdnas
agglutination
tcm
##fu
quantitated
ksh
burkitt
parenting
gastrop
nse
absorpti
transportation
bibli
residency
transfers
##amethoxazole
##retinal
hematomas
polycyth
angiogram
tan
cau
##reatment
hyperlipid
utilizes
ish
quinone
sprouting
cld
triti
nmdar
yap
##ario
pdc
neglect
verm
ly294002
##ael
##uronium
chlamydial
vinbl
hemispheric
chore
humidity
meiosis
melting
endocannabin
multicentre
entropy
acp
pc3
delineation
eliciting
dehydroepi
fibromy
##omocys
1977
hyperglycemic
smcs
##ocations
stereotyp
conjunctiva
dsb
parav
##etomidine
fluoroscopy
oligodendrogl
antidiabetic
resectable
fura
pancreatectomy
5000
pz
aj
moral
colp
contraindicated
bacteroides
residing
yers
chaperones
pp2a
isth
helminth
cd38
##aba
sleepiness
functionalized
##users
cd1
enterococcus
carbapenem
##urative
erection
nef
bq
homozygotes
cmt
##imod
pld
establishes
tubulointerstitial
##atentorial
##juana
birthweight
##ille
patella
cbt
confused
reposition
caf
exploit
1976
intercostal
phasic
kshv
##obility
proceed
##ll
##kinetic
glucuronide
releases
cochlea
arthrodesis
discern
isotype
##oxine
##occlusion
##accharide
benchmark
ca3
chiari
##ogenin
##phosphorylated
##ocyanine
crops
glucosidase
##isson
##ami
septicemia
epigastric
versions
androstenedione
pilocarpine
scatter
honey
orex
religious
tad
reinforced
telem
##ostr
culturing
camkii
posttranslational
seasons
dithi
faecalis
combinatorial
nuclease
lobar
energetic
ip3
ei
##erian
treatable
obstacle
##akia
e2f
notew
snake
gum
disrupts
claud
##osinus
pink
electrospray
cholesteatoma
sox2
aeg
pons
icg
##ometrium
cine
protracted
unac
vascularity
##rogesterone
##nants
##regnant
leptomening
##rum
218
azithromycin
##ohepatitis
344
##alasin
htt
microf
##roid
cholinesterase
neurosci
synchronization
mll
##aked
laminectomy
##ogloss
implantable
yeasts
##orth
mcf7
contacted
##tt
polyphenols
absorptiometry
axes
strengthen
##oplasts
avm
hydrogels
seemingly
##tons
admix
transmitter
convincing
osas
adnexal
remnants
kits
suppl
lumbosacral
robustness
##atous
##issible
obstacles
metaphase
orph
##ralazine
sacro
bonded
dimeric
mch
isoenzymes
##usted
answers
polyg
variceal
farnes
squares
194
procoagul
companies
vaccinia
cyn
lux
##obular
pulmon
probands
##ostin
##tructured
tlr9
##anciclovir
attendance
endosomal
messages
isotonic
##ospecific
cxcl12
herds
palpation
filtering
facts
undefined
##±3
colonized
immunoregulatory
mrp
##ovaginal
noteworthy
dermatology
wilcoxon
##omimetic
##othione
cdkn
bisphosphonate
agitation
temp
il6
atelect
chb
obliteration
##usate
astrocytomas
glut4
instituted
179
chlorophyll
ionized
sphere
smoked
digestib
##atech
liposomal
impingement
vinblastine
ketoconazole
##anting
hydroxyvitamin
biases
mucositis
lymphoblast
linearity
unwanted
##took
hallucinations
aquap
##airs
evs
dehydroepiandrosterone
glycosaminoglycans
nq
resistin
##ohumeral
kj
aplasia
seedlings
##agglutination
vesico
ebs
exactly
exceeds
inflation
holter
myometrium
##oons
unrep
##acetyl
intradermal
beclin
backgrounds
gonorrh
push
##980
rls
gdnf
evap
##vian
formyl
occupation
helices
analysing
monos
tumorigenicity
subsp
disabled
##ibrotic
##elong
temporarily
encephalomyelitis
##olor
phone
intraductal
exposing
administrated
undertook
reside
pdgfr
marijuana
ken
spironolactone
pericardium
acetylated
diplopia
livest
proposal
imperf
ambiguous
ccc
330
amplify
hyperex
tann
##gers
##inesis
sensitizing
##icus
budding
emesis
tetradecanoyl
triton
strengthening
myelosupp
##hydryl
oi
calorimetry
nis
##rospor
livestock
evasion
neuroradi
multile
rxr
interfaces
ethm
##itar
pellets
interobserver
flagell
longus
oligodendrocyte
chondrosarcoma
authentic
myometrial
ketoac
hundreds
233
##rectom
herni
##ogle
##ague
mdp
shbg
cd31
inoculum
mullerian
##4b
glenoid
anteroposterior
207
peroxisomal
ringer
atmosphere
circumv
trifluor
enema
cina
ancestral
cartilaginous
helicase
ecology
straightforward
tort
##orf
##orem
##omyosin
multisystem
overwhelming
societies
unfolding
fluctuation
marc
dynam
##ofovir
consultations
homod
##orespiratory
hpv16
##othec
##s1
apa
dichroism
passing
lex
mush
thioredoxin
acetonitrile
hidden
##flora
##print
worker
##imilar
presumptive
cim
subluxation
oophorectomy
##holders
pylor
starts
##7a
multicentric
coffe
##ogue
ploidy
neutropenic
##zo
sulfonyl
tj
polymy
baclofen
lxr
conting
vehicles
constrained
ribosomes
corticotropin
lind
cleaning
intensified
rgd
angioedema
bridges
gabaa
##ituric
urgency
##ecd
##s2
fibrillar
interventricular
lyase
arginase
ihd
215
lever
lfa
colloidal
basophils
denaturation
nsp
##alog
##yer
endocytic
microliters
book
vigil
perpet
organisation
valproic
rit
prospects
dmba
etan
mesothelial
##ocentesis
##olamine
##ocytomas
a1c
encapsulation
tactile
ror
3000
silk
cores
##ointing
cah
##isations
hydroxide
wheezing
steatohepatitis
concert
##standing
opson
schistosoma
epc
##indole
precoci
trapped
nadir
##days
recur
193
favoring
overcoming
maxillofacial
prevailing
##agal
##othing
metach
hypersecretion
aberration
##tified
semis
workshop
equivalents
##ivir
hairy
decis
heifers
bread
191
dermatomyositis
repar
condylar
tyrosinase
seaw
nasc
##robenz
s3
dre
tig
##293
p62
cnt
##testosterone
rendering
antinociceptive
inference
silicon
stomatitis
glucosamine
fna
1200
thyrotoxicosis
returning
##odic
terres
##ounted
afterwards
microflu
##bv
biocompatibility
pteryg
cytor
stimulant
nonsmok
adcc
sarcop
##ophthalmitis
beneath
euglyc
##ilol
desmin
coarct
music
##formans
cbct
brucella
metab
pharmaceuticals
cci
sclerotherapy
smad2
sarcolem
mining
ricketts
deuter
demanding
keratocon
electrically
##umbar
lysosome
isozymes
##gc
##azo
##yramidal
salinity
scaph
fissure
hashim
definitely
rights
##ivirus
smart
frontotemporal
g6pd
systole
fragmented
biof
##ubiquitin
grp78
neisseria
myoblasts
multiplicity
adjuvants
hir
hydroxyurea
oint
strategic
##ado
hbo
tangles
##enclamide
singleton
exchanges
nonsense
hydrolyzed
lifelong
seeding
##arine
chewing
##igenin
price
polypoid
buprenorphine
oxidants
##adol
hypom
infrastructure
prenatally
palmar
nms
incap
nonsurgical
nebul
##backs
radiosensitivity
##ylline
hydroxych
hashimoto
spss
##retic
olt
##trated
foetus
##ruc
polyamines
aip
risperidone
cd40l
agglutinin
shot
adenosyl
comprehensively
sonic
dehis
##idation
##etence
colic
multitude
1d
##imburs
magnet
shoulders
restorations
rds
sgl
##osperm
##avastatin
devoted
scleral
nkt
unpre
vb
factorial
unaccept
necessitating
stalk
##ocortin
tlc
glib
papules
glycaemic
##m0
renders
liposome
neoformans
irritable
enolase
reversibly
varus
046
epilep
txa2
209
esbl
referring
chelation
dsdna
nipple
chemoprevention
##aterals
ryan
##brt
carriage
cohes
##caemia
mycosis
##ochromatosis
shp
incisor
accompany
cdi
geometr
##l4
##like
tuberc
##lable
amphib
tremendous
sting
##okinin
manifesting
mutually
reimburs
jia
pale
myxoma
renovascular
cch
189
inacc
aminoglycoside
terminology
contracted
transgen
sulfated
kar
vasculopathy
unh
multidimensional
hourly
diol
032
ranitidine
contributors
anesthesi
imprinted
sphenoid
depicted
ovariectomy
photoreceptors
##chid
zoonotic
##trexone
neurology
hapt
##aparin
fasciitis
examin
protons
ecp
insem
lowers
manually
decidual
intramolecular
modifiers
infra
##folded
ond
skew
spliced
judgment
##rams
##1a2
##omechan
abo
sulfhydryl
cultivars
hept
hct116
fk506
nephrolog
synovium
biotrans
tuberous
repairs
metam
commiss
spheroids
##iparous
stakeholders
##itrate
imprinting
##havi
procoagulant
solar
mt1
vagin
itch
borders
mononucle
coffee
transfused
cris
handic
spermine
volv
tie
α1
##iens
infestation
algae
lactofer
##rophyl
pcc
##fring
intramuscularly
arguments
azt
zymosan
statements
##erves
213
literacy
##pharm
collaterals
ipa
phent
intestin
dub
4e
chemiluminescence
##ercept
antiest
dissecting
innervated
accelerating
synergism
340
mrl
thiobarb
deer
paradoxically
029
antinuclear
gangliosides
adenoviral
choriocarcinoma
underscore
warming
dece
##ischemic
mapks
edges
runx2
appoint
nct0
##erule
tensor
repeatability
##titium
appreciation
##n3
imipenem
##urf
malfunction
glycated
teratogenic
asm
berg
##ronic
endosomes
grains
commission
##ype
hyperbil
fathers
epileptiform
chromatid
deeply
callus
neuritis
e4
##life
mesenchym
clinico
##arboxylic
forel
##ethylated
rhinosinus
resilience
cyp1a1
macroc
pri
nonsignificant
doll
esophagectomy
uremia
modular
iiib
synthesizing
##ilic
bpm
gluconeogenesis
isothi
ambly
psd
##actors
serogroup
precedes
##abp
##alled
cardiorespiratory
##oselective
marks
folded
pann
cytoreduc
ranked
spiritual
##iformis
##ucher
laxity
tio2
kaw
##oped
##ecitabine
argued
nes
cephalosporins
alex
##ictal
2m
##uren
##plasm
secure
##legic
intimate
##han
valine
official
oscillation
scholar
convales
psychotropic
pill
##ectants
reasonably
endophthalmitis
artificially
biore
nfk
appraisal
238
##entioned
convergent
postcon
##leg
bout
phac
##port
##opathogenic
cystine
downward
hydra
biodistribution
contusion
cart
pairing
hyperpolar
thail
rubella
salicylate
etanercept
##adap
##oreductase
merits
diph
invited
assimil
metocl
licensed
feat
reared
bead
dsrna
sublingual
actinomyc
ifosfamide
blis
stack
penetrate
diminution
vinyl
prrsv
##opramide
thailand
palmitoyl
cryptor
##asive
observing
indeterm
##apez
flip
capecitabine
v3
choler
truly
##iana
eut
vivax
rhinosinusitis
##etan
##her
tmd
hyperpolarization
diffusely
lipof
gtpases
glibenclamide
1974
amik
volunteer
hete
##astatic
osteopontin
myotubes
bla
sectioned
nonselective
cob
##operable
motions
##encephalon
proteinases
5a
accent
circle
portable
verruc
cdc42
anaphylactic
##pot
thiop
hyperbilirubin
tsc
compete
cfa
##azid
artifact
##osylated
homo
unload
trainees
inspiration
secretin
leukocytosis
kines
packaging
cd5
stn
##odin
##romatic
vacuolar
##ozol
strabismus
seeded
endogenously
nonin
hemoptysis
antitubercul
p63
coarctation
nematodes
##lab
thiobarbituric
carinii
00001
disciplines
hypoc
sce
nucleolar
orthog
preca
lmp
groin
rumin
perforations
##ocortex
##amoe
haematoma
cds
bifid
consor
cholangiopancre
atlantic
##oparathyroidism
cataracts
##liptin
tos
molecularly
dissip
##romazine
rumen
sephadex
delaying
precipitate
toluene
unrem
hypoxanthine
multilevel
amni
nontrans
cinahl
leukotrienes
excurs
##book
metoclopramide
colorimetric
tcf
modifier
ogd
cmc
faeces
c8
registries
inhomogene
##uents
pht
foxo1
precocious
unfavour
##d4
homologues
u87
owners
nearby
refinement
centi
labyrinth
brings
##ecretory
friendly
timed
universally
wearing
cuc
pyloric
gct
##98059
macroscopically
tendin
1980s
##oflavin
dr4
framesh
venules
iodo
partum
tcs
##ocyanin
dj
##lear
t0
dyspnoea
mj
biv
##enses
amikacin
explos
laws
expectation
chose
ost
##nc
aurora
lak
gate
predil
cst
protozoan
##plasias
supram
grounds
550
osteopenia
cellulitis
joining
logical
dehiscence
pean
##onders
chlorp
imperfect
exped
noticeable
fgf23
copolymer
dpi
pwv
1990s
periapical
##iliac
cardiov
poisson
encompasses
nonne
045
unbound
franc
036
dissections
ogt
enteritis
eradicate
##gest
abi
spasms
plga
offic
isotopic
##etrically
bmc
anteced
##awa
collagenous
compromising
gabap
pneumocystis
##izine
enantiomers
anterolateral
chelating
upar
densit
scrapie
##oot
developmentally
columnar
##duction
nonpregnant
amoeb
aper
proceeding
motivated
instruction
adipogenesis
club
unremark
undergraduate
##utz
recanalization
telomeric
cq
innerv
trichlor
morphometry
married
okt
sleeping
pyridine
gastroduodenal
##k4
##inately
111in
cip1
unic
reproduce
spatiotemporal
coordinates
fontan
##rectal
##rophenyl
enterobacteriaceae
htr
aetiological
worsen
lpo
keyword
lysate
administer
modifies
qualified
nfκb
empiric
##astigotes
##ye
hyperosm
##olith
grid
osmolar
4a
complicate
ehrlich
dimeth
pher
extranodal
stau
metatarsal
pna
##neal
aspartic
phosphates
scant
council
diastole
taq
pathologist
##light
##olia
cannula
unmod
nationally
ttr
cd30
drained
tachyarrhythm
gard
unremarkable
hyperintense
ontario
wilson
lactoferrin
diphosph
pericytes
parathyroidectomy
epididymis
spermidine
##obiology
sulfamethoxazole
microflora
guill
dehydr
##ortus
polyploid
introns
intoxic
##ropol
##ott
tgfbeta
composites
alkalosis
##ride
##ozolomide
ner
bak
dsbs
exceptionally
ces
dihydrotestosterone
imrt
ryanodine
##dling
##ypti
decompensated
hac
speciation
##odilution
mict
##aspinal
zona
empirically
oligomerization
aluminium
hin
mont
producers
runs
chemoradiation
complexed
cholangiography
hscr
questionable
##iculitis
cancellous
oocysts
lis
biosensor
normalize
traps
##oceles
mantle
moll
letter
fischer
opacities
defibrill
neutron
alkali
mx
berber
salient
037
diacylglycerol
224
rpl
smd
game
##olithiasis
##inus
behave
organizing
asynchron
gabapentin
##ucker
##oo
cellularity
sternal
yersinia
endors
shrs
##3t3
##erolimus
fic
wg
##ucine
blastocyst
anoxic
4d
##lessness
putr
rifampin
clearing
spore
nonsmokers
everolimus
ifns
290
##oprostol
naltrexone
ugt
##othiazide
##years
authorities
##uck
carved
##oplasmin
willingness
c9
isoprenaline
mop
mdma
##aval
permitting
aqp
##ographies
disadvantage
hypercoagul
misfolded
cyp2e1
metallothione
longitudinally
epidermidis
provoke
misoprostol
volvulus
sett
burdens
##trained
optimally
dnas
aom
demarc
inoperable
mtd
##264
wort
cd15
ppb
unfavourable
nem
bam
fibrosarcoma
chelator
hba
wherein
pancyt
varicose
narcotic
wax
cholecystokinin
restorative
implied
pant
needles
temozolomide
conspicuous
facs
miscarriage
normoth
enth
dosed
attempting
chymotrypsin
##emetic
hav
meconium
aortas
terrestrial
fatality
hbx
vasodilators
daun
031
prostatitis
amh
streptomycin
stance
leaks
srebp
sirnas
barre
ceftazid
reser
interin
reservoirs
baical
enterocolitis
##ureth
##uccin
inr
burned
lympho
chloroplast
sulfon
chemosensitivity
rejected
glas
carbonic
sows
xiap
nachr
originates
020
indeterminate
borrelia
subclasses
##itations
glute
angiograms
226
cecum
##fractionated
cd18
serca
gip
kre
##fetil
crosslinking
hek293
byst
separating
alc
pco
calm
hypertrophied
homosexual
cryptorchid
038
conferring
subscale
adhered
nascent
ahi
balf
restrict
immunotherapeutic
fmlp
cautious
decide
affiliated
thread
sms
neuromod
transvers
requested
rps
##ysteroid
ganciclovir
217
duchen
hyperprolactinemia
hemi
extrapyramidal
catastrophic
globe
##rophies
##oxidation
constitutional
4h
##tising
ultrafiltration
rafts
aec
bold
duchenne
broiler
ceftazidime
mta
##alesional
michael
##l3
##endicular
straw
contrasts
familiarity
cpm
ideally
mdx
proteasomal
##edicine
topology
characterizes
asymmetrical
##fan
mars
n2o
multifac
turning
kiss
multiplication
deoxynucle
decisive
psychology
astigm
##part
regenerated
civil
controversies
cyclohex
fried
apnoea
histiocytic
gangrene
deceased
##urv
radioiodine
breakage
disappointing
##ytoplasmic
sb20
skov
atlant
inefficient
exome
tlr3
igan
microdialysis
sulcus
##cytidine
235
loosening
tolerable
heritability
ctls
cse
quoti
multicellular
##ovulatory
##rows
##house
exogenously
weaned
oligomeric
shaping
##umann
##otho
gynecology
musculature
310
syndromic
pus
shigella
nut
alend
dislocations
microangiopathy
##ounder
coarse
setup
##hp
asians
phototherapy
districts
interictal
intraabdominal
impairing
##344
atelectasis
antiemetic
##osclerotic
orchi
invariant
ait
scarc
antagonize
precipitating
##asaki
##isen
glucuronidase
hpt
lan
gliosis
huh
progest
sirolimus
##uanosine
pbp
subretinal
recirc
ascitic
##oresistant
legislation
##icit
##balanced
##side
supern
institutes
mounting
lq
exertion
modestly
labels
splitting
lub
aqp4
##ominant
granulocytic
##earing
prism
phytochemical
anger
##amers
lycop
mpn
interstitium
carvedilol
hepatos
pik3
casual
##ermectin
intestines
##odial
translocated
adenomy
liposarcoma
norw
igh
osteoclastogenesis
generalised
electroencephalogram
##ammonium
dispens
multinucleated
flush
abundantly
wanted
3b
##cls
radiolig
degenerated
housed
##so4
##oduodenectomy
ido
thematic
fluidity
##asant
israel
levo
dnp
denmark
neocortex
flud
eluting
wnv
autoreactive
##agle
multifaceted
reconstruct
derangement
arthropathy
microvasculature
##nb
photocoagulation
maneuvers
wards
myoclonic
osteochond
##ticula
streptokinase
subma
schiff
##adium
hydralazine
ruptures
interindividual
##ohyp
putres
ncc
icv
appendectomy
staurospor
complemented
aura
##amo
##umatic
varicocele
##oencephalopathy
##feld
##agliptin
exercised
oligosaccharide
dti
##menting
##ropion
##panze
trkb
##emoglobin
pursuit
fms
evoke
mmt
chimpanze
assurance
lentivirus
potentiates
lattice
dermatologic
lentiviral
##idov
lessons
obsessive
opacity
commensal
glucopyran
shortage
eif4
misle
##imolar
angiomy
##orre
renewed
alendronate
cm3
mcm
coils
hyperkalemia
034
fingerprin
perpendicular
epoxide
gk
glycosaminoglycan
willi
##gp
pige
depot
barley
microcirculatory
urease
kainate
decompensation
##tistic
homogenous
autograft
##osoph
priorities
isoflav
meningococcal
##naud
microbiome
aband
pid
glen
##tri
##adish
biodegradable
unmodified
johns
hamartoma
pls
referr
droplet
bioen
dexmed
introduces
##nit
astigmatism
##factors
370
periosteal
vinc
##ullin
extravascular
interrog
periodicals
phentolamine
1950
homologs
papillomas
pps
lymphoblastoid
yearly
exceptions
##ultured
##rocar
toxicology
misdiagnosis
reti
precancerous
recurring
reversibility
##arche
leiomyomas
vsd
275
bland
reasoning
048
approximation
coq
##urd
##enzym
serovar
handle
pd98059
##entistry
polyoma
raynaud
ddr
beet
unip
weal
propidium
sublethal
spared
deserves
unexplored
ocean
dexmedetomidine
radiopharmaceu
dynamically
tams
biog
gonadotrophin
##field
##olipoma
trx
cron
##erals
cargo
osteolytic
topo
detects
transcutaneous
##amoeba
wi
cholangiopancreatography
upregulate
ointment
##osc
steroidogenesis
##terna
impressive
##lemma
brs
poland
arteriosclerosis
aas
##adin
glc
heel
##tef
##2o3
##opreval
##ainide
perianal
##tification
laterally
atopy
##ancreatic
pover
480
pace
##behavi
seropreval
##v6
angiographically
##obium
beck
α2
crim
033
fundament
recreational
posttransplant
acetylgluc
orthogonal
enum
practicing
proceeds
##emy
protrusion
poverty
##ropolitan
planus
a4
##otomized
researches
contrasted
excitotoxicity
bmax
extrad
phox
fibromyalgia
rhu
pharyng
nonresponders
##insically
berberine
##olumbar
schwannomas
deployment
coronavirus
dilemma
##μg
osteoid
zidov
cyclodextrin
wise
millions
##gow
mlc
raphe
riboflavin
pei
affection
hong
aic
polyglut
enzymatically
troub
communicate
marketing
slopes
anxiolytic
corrective
##quat
proband
ptb
sedative
coexpression
abca1
##ulbar
generator
dentistry
pharmacodynamics
lump
natriuresis
dentition
regressions
fourfold
streptomyces
##idinium
anterogr
hccs
##otidyl
piece
enhancers
hyperhomocys
obligate
zidovudine
##ometabolic
xylose
coactivator
pellet
predominated
##opically
isopropyl
##uloplasmin
correspondence
wait
##blastic
sternotomy
##div
topographic
##iptan
beating
##isti
isovol
pleur
caga
penicillamine
##keep
incidents
glasgow
lipogenesis
kyphosis
cdr
##icides
replicating
##imazole
approaching
##adenomas
palliation
lond
##ovalent
##faction
bulbar
endings
permanently
caa
##9a
inqu
##enium
h5n1
ubiquitously
uracil
pgf1
hydrophobicity
##gener
dots
reacts
mares
##rotoxin
6r
defec
postsurgical
neurotoxin
spiked
##tirp
kawasaki
prohib
##imidazole
humanized
mmp9
stools
##alo
guillain
adl
##trone
triage
bulky
brack
##1p
horser
##iere
histiocytes
ano
interests
unre
eswl
##osphere
disagre
billion
acd
census
039
##ophenolate
spo
gonadotrop
hcs
##titution
quinidine
convex
trapez
##activated
haematopoietic
##isole
##iptyline
diphther
pds
investment
##uro
overexpress
taa
insecticide
manipulate
divisions
lovastatin
hypercalci
cxcl10
ild
putrescine
remember
cofactors
arbitrary
transients
convulsive
penetrance
##ofibrosis
horseradish
##arietal
flowering
autogenous
ipscs
##jejunostomy
##iversity
immunodeficient
mercapt
estrone
genu
f4
postinfection
patchy
alkaloid
spiroch
fabrication
crispr
shoot
heated
ready
chat
uveal
cort
##rice
binocular
peripherally
visco
arthritic
inert
assesses
ptz
incorporates
perfluor
gallium
##olon
pieces
microsurgical
refused
ensuing
mites
gssg
genitalia
starved
annotation
murmur
ntg
massage
breaking
collision
staurosporine
broken
mycophenolate
aforem
aforementioned
##azoline
##azolamide
amplic
injectable
analyzes
wegener
b10
rass
supervised
accomplish
nbs
##elt
seminoma
agriculture
cyp2d6
##aque
kan
parvovirus
hatching
perv
microorganism
fabp
##oty
prepro
perfusate
pancreat
tags
##acetam
zon
perist
philosoph
mend
##ropathies
##atids
nmo
avoids
waveforms
rad51
##eller
positives
ft4
popularity
##ophyte
counteracted
haemophilia
1973
neuropathology
carotenoids
gib
micromolar
pherom
##oct
nests
##rid
dwarf
habitual
rolling
tape
graphene
rheumatology
##251
432
rgs
cholerae
232
rfs
sos
shrsp
##assemb
osteomalacia
##ammon
alongside
microfluidic
administrations
tpp
##dromic
254
##3c
nsc
mentally
vaginalis
##adders
referrals
nph
unpreced
hyperhomocystein
dhe
adipokines
violent
potencies
crystallin
##optera
rhamn
##oacetic
##meter
##adip
euthanized
castrated
fractured
denatured
encl
portug
##anglionic
genders
screens
hsp27
dermatological
calibrated
sewage
45ca
##ditis
##db
myelosuppression
fio2
unprecedented
hut
virion
rca
##operic
solids
vor
nephro
ht1a
efs
lar
neurosurgery
tropism
adpkd
myelination
perturbed
##agenic
reminis
afm
isozyme
metalloprote
tricyclic
dichloro
quinol
farmers
antid
##vc
orofacial
regrowth
neurobehavi
##nios
eicos
outputs
##oxides
regenerate
rearranged
submaximal
reserpine
extraord
certainty
masking
apr
##istan
saturable
favors
bivariate
##odality
compatibility
unified
retinas
perit
neurites
predilection
rer
derangements
##rocytic
advancements
metropolitan
047
t1dm
##ionyl
pegylated
650
budes
endolymph
dosimetry
##ql
meticul
bit
glycosides
apoc
endometrioid
cones
##ophytic
##mb
20th
##elmin
##ortisol
charco
resis
dorsolateral
flood
richness
company
##eryth
##rical
hibern
commentary
posth
ell
hca
ebna
imidazole
demineral
investigational
biotransformation
##03
cloac
augments
dissimilar
turk
submucosa
waf1
governed
lumines
oncologists
aorto
##igration
pathomechan
budesonide
##aced
##orespons
assemble
freund
##atia
malate
##anar
hindered
no3
##rozole
linc
clom
pkb
vasodilatory
ranking
##otency
##adaptive
miu
mobilized
elevate
##osahex
##ja
##rophylaxis
##tins
achieves
polycyclic
propos
relieving
herbiv
templates
##itarism
craving
crack
seroprevalence
illicit
halo
encounters
##athic
nephrotoxic
##the
incisional
moss
##1c
wells
approx
##inoma
warts
lch
osteolysis
caval
haemangi
bacteriophage
##iasm
219
nscs
diverticula
allergies
std
phagocyt
##omus
epidemics
modifiable
triplet
intracellularly
nanomolar
mig
glur
eliminates
pathogn
harmonic
biodiversity
rubber
acinet
unlabeled
##ituitarism
tryptic
oxidizing
roi
og
##acrine
pneumoperitoneum
##fast
0003
##ograf
sativ
##ima
advisable
dqb1
pomc
scratch
enox
coadministration
##soas
funded
hrct
ctni
coinfection
duplications
##thiaz
traced
radicul
intracytoplasmic
ctcs
amaz
disclosure
sinonasal
##itans
charcoal
mbq
locate
rins
pyogenic
stigm
##inavir
airborne
##oxifene
chloroform
##neumonia
rw
reverses
acei
ccr2
hirsu
thoracolumbar
immunoperoxidase
extirp
##uis
intrinsically
parat
avf
numbness
ablated
cryptosporidium
plethysmography
##ramnios
mibi
lved
erb
##acies
##holder
o3
sati
scrutin
##bearing
klf
underline
##osel
microph
finland
reinforce
##3580
extern
noncomp
##y1
myopathies
wp
stringent
inactivate
##iensis
substituents
you
engaging
relaxed
elementary
cystoscopy
nonhuman
p19
##oub
widening
##dehydes
supplying
viet
chances
##±4
245
distilled
edition
baff
##inks
patell
interposition
rbf
misleading
##eastern
##umer
concre
uva
london
masseter
##inolones
inulin
##atran
##ateness
recalc
moments
acinetobacter
orphan
fenofibrate
leader
gelatinase
ntr
mesenchyme
bystander
subend
239
involution
secondarily
hyperlip
keywords
invag
dissatis
##ergetics
immigrants
microbiology
triam
##ormone
##opolym
##orphism
nog
estrous
docosahex
gonads
motivational
oxidoreductase
listen
predisposes
pdi
51cr
esthetic
sz
cannulation
localizes
speck
endodontic
raw264
culturally
##ointense
abiotic
elaborate
ricin
ers
deposit
dca
consulted
rearing
k2
outdoor
claimed
nanog
hypercholesterolemic
edematous
grouping
thanks
avidity
ppt
nigros
disaster
nonre
lcs
##odone
gill
12th
biopsied
opc
glut1
quater
fls
aih
attainment
##entions
##operiod
nest
##aminases
##ressor
park
apgar
colos
destin
minerals
cryptic
cornerstone
legionella
remitting
haptoglobin
hydraulic
lect
##phenoidal
brucei
nfkappab
risky
sulfoxide
inhabitants
transducers
hepatocarcin
underway
conflicts
##evalu
antegr
ameliorates
##ava
ld50
claudication
cape
riton
##obox
microdiss
##600e
8th
advocate
athymic
cpl
underpinning
clath
##tigraphy
ceased
parvum
foals
myri
nonrandom
mountain
##s6
whatever
##diagnostic
420
lameness
bronchodilator
##uloplasty
distention
4000
##oproteinemia
argon
aldh
##tet
weather
request
triacylglycerol
golden
revert
kong
hydrodynamic
nontoxic
ritonavir
##phorbol
##ophosphorylation
##omol
impregn
costimulatory
hill
characteristically
preparing
globus
ternary
afflic
extubation
bioch
unreported
##ifn
rickets
acetazolamide
##oretinal
avulsion
meniere
diversification
eo
imipramine
plasmon
epir
entitled
termini
intraclass
suckling
amphiph
pseudop
##fluorescence
##trast
educated
##tress
interpretations
photosynthesis
psma
microcephaly
backward
##140
iterative
plp
anhydrase
chs
##methyl
representatives
clavul
pancytopenia
##vt
baumann
interior
kinet
aberrantly
transglut
##123
aquaporin
apheresis
omental
myofibroblast
gpcrs
tps
nucleosome
nigeria
rs10
ribs
enterica
thaps
ulcerations
fusarium
ipv
micturition
striated
fits
dpd
##tronic
analyte
atf
losing
recruiting
paraventricular
canis
cistern
contractures
orchiectomy
achievable
unrel
insensitivity
sacrifice
veno
cpk
242
caen
##abditis
##aracter
043
linguistic
heterochromatin
380
##iliensis
##ocalization
correspondingly
stemness
##otinib
hydroxybutyrate
hirsutism
##imidine
325
##tilb
psycin
tle
##yal
psycinfo
klotho
stun
acquiring
drift
histoplasm
colocalized
disparate
neurobiological
hypersensitive
##aks
timolol
##olstein
speeds
tables
ema
perforin
coiled
myxoid
dnmt3
exf
ignored
accommodation
lord
alcohols
228
reinforcing
reassess
cga
hollow
intratracheal
hyposp
communications
ensures
##rotum
innovation
judgments
crosses
stoma
closest
remif
##force
pyogenes
hydrochlorothiazide
##arcin
derivation
lignin
229
premed
ketoacidosis
cardioversion
cholel
##tensin
deoxyribonucle
irid
keratoplasty
phosphatidylethanolamine
leaflets
stir
antegrade
heterosexual
zoled
biomechanics
##ocaps
arrhythmogenic
suppurative
unpro
sfr
swab
errone
anterograde
##2780
aspirates
spill
pon1
forth
glutar
##arded
lymphatics
overactivity
##anum
ovulatory
##agers
##ubic
protamine
och
cauda
cryopreservation
trehal
bilayers
crosslink
##rax
pest
##amps
peanut
proceeded
peptidoglycan
##ankton
corroborated
campt
fimbr
posttranscrip
thapsig
dft
mural
cya
hat
sialyl
##orhabditis
subsided
mesentery
##obacterial
gingiv
hydroxysteroid
cannabinoids
dipp
uncertainties
p15
urologic
exudative
covariance
mistaken
harbored
fluoroquinolones
tonsillectomy
isomerase
##acological
taf
scapular
nigrostriatal
gat
oryz
gaucher
environmentally
levofloxacin
meetings
converts
ifnγ
implicates
meningoencephal
exo
photoperiod
auricular
hemagglutinin
ssi
thapsigargin
basin
desaturation
nonoperative
depths
undoub
042
##ppv
spt
##vin
34a
##parametric
sclerotic
applies
nestin
aspirate
consortium
inad
comt
##interp
crystallization
therapist
hypospadi
##umn
##iased
centrosome
autistic
perceive
##roliferation
viz
intensively
pufas
phages
omentum
hyperreactivity
constell
##obaric
pectoral
pallid
cooh
smad4
##inum
pairwise
mbc
ameliorating
malnourished
conductive
##bronch
sterilization
saccades
frameshift
ppa
##cr1
gastrost
windows
herbs
cytoch
contaminant
##obenzene
hypotonia
urography
micronutr
##erculosis
##entation
deoxyuridine
ps1
crom
marfan
biphenyl
periodically
mage
vietnam
##me3
remifentanil
normoglyc
descriptors
posed
##analysis
coherent
naphthal
##anx
049
cardioprotection
##isinin
sweating
##mannin
synonymous
neopterin
##perfusion
##tructures
cefota
carol
skilled
clarification
arcuate
leukoencephalopathy
scavengers
arrhythmic
diminishes
armament
defensive
midgut
endoscope
sirs
holstein
##welling
homeobox
attribute
intradural
nitrates
eighth
reevalu
rounds
dioxin
abt
municipal
##oplastin
bras
arthrop
unspecific
##apent
emin
cryotherapy
proteus
undern
acetyls
globular
ca125
incompatible
wortmannin
formulas
##tyrosine
beverages
epirubicin
ivermectin
##omonic
anxious
reappear
vsv
yoh
251
obvi
interch
villus
stat5
myelofibrosis
foref
postex
aflatoxin
##oeae
observable
intraoral
dextrose
xii
##apa
belg
041
hamstr
##men
tobr
colostomy
saharan
oldest
leukem
gdf
exponentially
##edial
##ticism
gerbils
denitr
duty
##with
myotonic
neuroect
##ussian
gingiva
orientations
phylogeny
resistances
17β
intermolecular
reimbursement
dibutyryl
cgy
ui
##itably
intrapulmonary
socially
pravastatin
mesoderm
nonex
clathrin
aggravation
##phere
##onian
##teg
neurofilament
##e2
teratomas
extrapulmonary
perif
nasopharynx
memories
hon
conventionally
##factorily
puv
##otaxin
##aka
comet
365
eac
tryptase
##onscious
economically
wealth
outper
##ume
duplicated
##ecalc
##arins
clefts
transformations
glenohumeral
ats
##lm
gor
thromboplastin
electrocardiography
carboxylase
estrus
h19
nonunion
want
##isy
texas
fibrogenesis
virtue
mmse
pav
cortisone
undoubted
enig
steroidogenic
abcg2
tonsillar
blepha
spectrometer
insulinoma
mesial
##electron
extraocular
floating
cylindrical
confron
pharynx
##bw
drawbacks
potentiating
resect
12p
corros
sensitize
##iet
zn2
endos
bee
voric
shortest
chlorpromazine
enterotoxin
tdi
arthral
ofloxacin
reinfection
gonorrhoeae
extradural
##1α
hierarchy
irrele
lrrk2
baumannii
##owed
misf
236
endobronchial
##yb
investigator
feno
gynaecological
psychiatr
kip1
hapten
lon
gpa
anchoring
epileptogenic
reminiscent
evade
caenorhabditis
aat
categorical
manufacturers
##olinic
ht29
##artz
ablative
##iro
surfactants
seawater
##ollicular
theme
sorted
incurable
simplicity
curing
apn
##iden
zucker
fanconi
storm
fishes
pkr
angiosarcoma
bx
##esters
coryn
antihistamines
5d
voriconazole
gists
sorbitol
sarcopenia
hyperker
nicardi
##obese
##antigen
hypov
##etis
unbiased
clue
##ovorin
##orient
inborn
##lexes
benzoyl
quinine
ibm
##roke
manipulating
herm
##agnes
prokaryotic
nicardipine
##omerular
expiration
chlorine
##atidic
241
ccd
tef
pectin
esterified
reparative
dutp
metallothionein
trpm
fibroblastic
childbirth
neutralized
pupillary
nomencl
odd
rx
business
megal
enac
electroencephalographic
cd86
pih
john
##dipine
disinfection
acknowledged
##jury
glutaraldehyde
immunoassays
preponder
laminar
##rolateral
5ht
hed
dyss
appropriateness
pathognomonic
##iferol
du145
ym
miniature
epiphyseal
elite
lca
##adec
coxs
deoxycytidine
mpm
acidity
polycythemia
fluctuating
hnr
hyperammon
##dis
antidiuretic
hypotonic
##osynthesis
vacuole
##ches
plating
dz
##ucent
unamb
transmissible
ureteric
preclude
cefotaxime
rech
leptomeningeal
melanocyte
##ogranin
dapt
transrectal
song
##oepid
abut
discriminated
syk
ancestry
aminoglycosides
viscoelastic
##trauma
lecithin
##arthr
scfv
##ifera
ctp
##hou
227
##omethylation
##iones
hun
hyperuricemia
krebs
biomaterials
duk
accred
paramagnetic
endometriotic
mhv
hepatomegaly
lati
vcr
compliant
##anging
udca
uncharacter
relied
sao
heterot
radiois
armamentarium
retroviruses
isovolum
tobramycin
ancillary
qi
chen
transparent
hydroxymethyl
##ulsification
characterisation
google
t6
##fly
trying
nocardi
ingredient
nucleoli
tir
##ytosine
##phia
thicker
haplo
gca
##unate
aun
gapdh
##asties
mucos
pursued
guanylate
friction
directing
bont
##otrans
hyperbilirubinemia
thoraco
preferably
cus
##arthritis
opacification
##imbine
colocalization
tetradecanoylphorbol
tailed
palmitic
paraquat
switzer
concludes
hva
044
bites
sps
dsc
##urus
unambiguous
mucocutaneous
prolyl
hypha
rud
septa
auxin
polysomnography
dag
aminopeptidase
oligodeox
prick
inception
marm
tdt
pj
adt
##uce
macul
##ohy
##ocerebellar
digits
adver
intervening
irrelevant
##apto
outstanding
seat
hypnotic
antithyroid
##una
southeast
porphyria
territories
localizing
qualities
genotoxicity
multimodality
getting
citric
252
hoxa
hnp
euro
solutes
stabilizes
234
##ocytopenia
nadp
pneumophila
obligatory
switzerland
metaplastic
turns
ideation
suvmax
exceedingly
chi2
##cing
##repres
athle
preecl
##ems
commenced
intralesional
subspecies
##oya
haploid
argument
cili
probabil
rrs
##actyl
osteochondral
ophthalmologic
assemblies
##ontine
tibialis
colored
unavail
##berry
supran
replicates
diary
beij
hoped
valv
polymic
##italopram
reductive
scopus
##opexy
##othromb
##igan
satisfactorily
cryptococcus
incarc
holes
forehead
243
macrolide
subepithelial
thermoreg
interphase
##adate
abp
isothiocyanate
##erson
ondans
##alogy
academy
informal
classifying
e1a
##oprazole
##cha
248
denture
slug
electroretin
porosity
letters
nrs
conflu
cytarabine
mitoxan
supplies
arrangements
misuse
burnout
mofetil
digitor
continent
histochemistry
isogenic
##ibi
hay
hospitalisation
mnsod
antit
##antoin
ipr
dissect
educators
entrance
proct
ivs
##ogranul
expenditures
cholelithiasis
lx
trisphosphate
##antel
##fh
probabilistic
rk
quotient
vulva
dollars
##ureteral
##anthrene
haemodynamics
duck
030
parallels
rsd
sectors
##nn
avr
##tigen
sural
protoporphyrin
ire
recovering
sns
apne
ontology
emerges
ddt
##ifos
wrong
transsphenoidal
buds
unfractionated
collagens
eif2
dxa
1972
biodegradation
yohimbine
adal
##k9
retains
initiator
casts
pud
##erts
reinn
##averine
climatic
neointimal
pneumonectomy
transglutaminase
elevating
impulsivity
scrotum
peritum
docosahexaenoic
clots
##ocus
daps
spacing
spermatic
##rome
mosm
subep
tramadol
ccn
n3
egta
philadel
maladaptive
hydroxydopamine
workforce
fsgs
nkg2
cerebr
enj
erβ
fascin
ch2
robot
gastrostomy
fbs
tetramer
p2x7
prison
annotated
##uating
consangu
noninf
supratentorial
polymerases
epoxy
leucovorin
aif
##n0
digestibility
hypercalciuria
chlorhex
sily
ima
rtms
philadelphia
tuned
ondansetron
meticulous
##ipient
##ulinic
ink4a
economical
accompanies
cronbach
pemphigoid
pdl
##ealing
mitoxantrone
igf2
societal
ftd
necroptosis
electrophysiology
neurotrophin
isole
gan
brit
##body
hemochromatosis
reportedly
congruent
enterocytes
electrons
specialties
restricting
hemin
##ocompatible
depolarizing
pentoxif
flushing
transitory
scene
##anda
glue
undetected
jh
digitorum
drinks
negativity
sab
isc
iaa
dsp
quail
expose
polyaden
neuroanat
locked
prolonging
contraindication
seminiferous
rsa
##oesophageal
hsps
hypoechoic
bicuc
linkages
fundopl
attract
##enzymatic
nanocomp
##uses
mek1
##osylcer
f3
##cot
alleviating
divide
insecticides
mms
nations
coagulase
explicitly
mehg
##elitis
malle
beta3
slide
cd80
counties
cmh2o
vps
wel
##opelvic
performs
menstruation
deoxynucleotidyl
nimodipine
preeclamptic
noncon
nails
##roth
adopting
receipt
##urized
pallidus
lta
chlorhexidine
prematurely
gangren
##ectum
pnd
laun
sb203580
competency
instantaneous
stnf
diminishing
##odeoxyuridine
bean
aspirated
enantiomer
dentine
absolutely
deciding
imported
rhodamine
integrates
purinergic
leprae
##exin
electroencephalography
visu
ifngamma
pnh
ultrac
ichthy
##osts
##romas
coculture
transposon
spermatog
alloy
cdp
microstructure
cyto
1970s
cheek
subnormal
catalepsy
laying
paced
metachron
##ophal
cpe
beside
quaternary
shorten
simpler
sh2
publicly
hypospadias
cetp
radioligand
##ulence
##ocative
hmw
hatch
ert
##lot
##arthria
255
metastasize
crpc
cardinal
defl
mustard
aggravate
hardware
cobalamin
cephalic
##rian
##dn
augmenting
digitalis
proxy
enteropathy
bronchogenic
undoubtedly
intimately
buffering
vat
naa
srp
nod2
destabilization
##oguanidine
valsartan
levator
troubles
pentoxifylline
##q1
##rinone
proliferated
gsk3β
tss
nonobese
regained
epilepsies
api
fcm
intriguingly
ida
ck2
reversion
flt
11q
##ocyclic
brucellosis
shrimp
amnesia
mfs
transepithelial
hydrolytic
##viruses
breakpoints
##type
lipo
bicuculline
##ecks
fellows
malays
viewpoint
condensed
refine
##oplanin
leach
isthmus
diverticulitis
246
mosaicism
resumed
causally
cytochalasin
ameb
f344
generalization
breakpoint
##yxin
extensions
turner
pollutant
rpa
definitively
stx
lasers
pae
arsenite
expired
##position
##200
bend
anonymous
thiols
tibi
transcriptomic
##ophthalmos
##rotin
ceruloplasmin
nomenclature
vats
onych
distally
hypoparathyroidism
subdiv
intensification
finnish
ventriculography
bace
bombesin
etiopathogenesis
##zolid
agonistic
##chisis
lenti
ask
thrombectomy
tracheobronchial
columb
mrc
interfered
pigments
rotating
magnification
thoughts
kindling
mecp2
##ochemotherapy
neurologically
criminal
imagery
##kel
hematogenous
booster
jm
pparα
toes
incompetence
aldehydes
upregulating
cx3
urethane
carboxylate
##ibrin
hiaa
urology
uh
beings
accommodate
fxr
isr
baroreceptor
253
##osensitization
##estrus
megakaryocytes
acetylsalic
constraint
intricate
##emble
##fatin
certified
nanofib
##ascin
walled
anemic
subth
powered
##otrig
basically
lymphokine
##orrhiz
characterise
endometr
##employ
pgl
##ald
gambling
sutured
barbit
relatedness
defibrillation
seated
ptt
##yelinated
misinterp
industries
ctd
eicosanoids
sigm
necessitates
rhodopsin
##elian
anthropogenic
anoph
dmp
##arction
knowing
microbe
meval
subtr
manufacturer
intentions
radiosurgery
beijing
ileostomy
##olytica
polymyositis
sterols
ventrolateral
interdep
flick
multipl
laev
bloody
singly
dyslipid
##ofr
dtc
glycemia
unconscious
##iride
beams
##480
##antigens
coxsack
##onella
##pinatus
259
simulator
multiorgan
jew
osteoclastic
qa
naprox
barrel
inductive
myopic
clipping
radicular
tfr
nitrotyrosine
zymography
##aploid
hemodynamically
sstr
spectrometric
glaucomatous
diode
pulsatility
labial
hypomethylation
sox9
adalimumab
brass
nucleation
tetrod
pseudotumor
sella
##aglobulinemia
hlh
##oplegic
##rostomy
hots
perineural
dus
holistic
kim
laa
immunotherapies
names
inactivity
##ondin
pvp
crypts
harbour
315
patellofemoral
indexed
phthalate
chik
unacceptable
##nps
##adjusted
anticonvulsants
linezolid
calving
electrop
cytokinesis
tonsils
neurobehavioral
spiking
inadvert
octan
deae
convey
plt
externally
##rhea
spectrophotometric
mvc
trep
##erged
causality
figo
##ealth
ogtt
segmented
roughness
forelimb
mock
serosal
chronological
247
pcm
weakened
focuss
bioc
biomolecules
##tus
neuroleptics
hyperandrogen
bred
pediatrics
jer
narcol
spons
recognizable
##mu
venography
##rectomized
mala
aldosteronism
additives
centred
priori
topotecan
##ophalangeal
blastocysts
precautions
triterp
merit
documenting
kilob
adsorb
topir
##bin
##opharyn
##arity
##mapk
aad
skf
deoxyglucose
conceal
##ighter
firmly
##a3
##etast
caliber
disruptions
boron
confid
noninvasively
forkhead
congeners
##jugated
multistep
ovale
uteri
gonadotropins
mesylate
oct4
lysed
moab
rotenone
isotherm
glioblastomas
indwelling
dce
leukaemic
ramp
squared
lactone
snoring
predi
eradicated
anaerobes
##etary
##oglutarate
maternity
pseudocyst
b5
topiramate
abusers
dnmt1
galanin
##obe
##ortin
##oreactivity
hemif
fronto
apple
igg2
bark
a2780
2α
succ
312
265
quarters
clc
inequalities
rb1
mn2
cxcr3
fts
unravel
ns1
xenobiotics
argues
gamet
navig
endocannabinoid
##othoracic
poliovirus
##nl
##alasia
francis
lil
walker
cd11c
##otin
igg2a
intubated
chromogranin
sight
isoprost
deacetyl
ophthalmology
pnp
##oquinone
graduate
southw
cheese
nighttime
proprioc
tga
pediatricians
p24
mdck
lmp1
mismatched
polyt
aggrec
abcb1
breakfast
wires
ptca
utilisation
prene
fret
associative
tetrodotoxin
298
##alp
acyltransferase
naproxen
auxiliary
γδ
e2f1
sicam
plethora
morphologies
acrylic
orexin
conceived
diphtheria
mam
leis
myriad
buffalo
save
akt1
fibular
hyperhomocysteinemia
##orelax
fcs
fucose
urolithiasis
t8
balancing
elaborated
mev
microvilli
##idene
youngest
##cb
##nitros
dahl
vero
operators
anecd
dysarthria
##yguanosine
mpl
pumping
spf
cryopreserved
bism
##ilton
##ryl
##thiazol
fundamentally
bacul
hardness
##izyg
gloss
oab
alimentary
ppis
snf
ensemble
bears
adduction
laparoscopically
dr5
##ariasis
aprotin
fallot
tbs
inevitable
##answ
dav
2s
lenal
fundoplication
##idian
p0
autophosphorylation
appendage
##tervention
lacunar
##hai
##igral
say
scopol
posttranscriptional
liability
kainic
##rowing
520
janus
reint
dispensable
##ano
duplicate
##iatus
disconn
anthracyclines
decrement
colostrum
##rf
tubercle
tetrachloride
lamotrig
virologic
≥1
payment
unemploy
lenalidomide
digest
spondyloar
bez
wavelengths
aborig
mdscs
pbr
saudi
stations
tfpi
triphosph
ome
ht3
enterococci
spectrin
tod
unansw
raft
##ocholine
ale
suturing
reverted
sock
hydrostatic
p10
adipogenic
traces
coughing
argen
itching
lir
##osider
strengthened
competitively
mushroom
##elter
trpv
turp
probiotics
tetralogy
threatened
triamcin
propagated
##cortic
vigilance
o6
p14
##cemic
perk
sof
homeless
dihydroxyphenyl
cen
lamotrigine
compiled
pik3ca
##β1
bare
smoker
discontinuous
s4
##aminal
266
dapsone
calculus
disassemb
##arthrosis
pcsk9
##atechin
##ociliary
discriminative
cjd
aminopyr
##eptidyl
tumorous
perfring
underscores
aprotinin
##ercosis
sectioning
hamilton
dr3
typed
hemopoietic
carotenoid
thinner
263
##ormonal
##osities
excitotoxic
##oprophylaxis
##obar
anteriorly
transactiv
epistaxis
pdr
aptamer
sliding
rgc
unanswered
pend
##icularis
log10
curable
##5ac
249
leisure
nonl
predefined
enters
bleaching
##din
040
emergencies
mineralized
bisphosphate
ccp
concentrating
abdomin
letharg
##acular
npv
apelin
r0
##obutyl
237
forests
stear
oncolytic
stressor
muscularis
psychiatrists
hx
raas
thiazolid
rater
##rexed
turkish
ciliated
equilibr
aggrecan
##132
fibula
preformed
11beta
##equencing
vitell
##omyelia
resides
atlanto
apcs
amounted
monophasic
##leman
sterility
##ells
mmp2
##capular
##my
sleeve
oxys
lav
tack
ca19
reperfused
cryptococcal
kynuren
distorted
##oconjugates
##case
##ulant
##embranous
ipl
zno
##idipine
hyphae
pvl
clades
repositioning
architectural
mitogens
substantiated
puerper
microliter
bdl
##b6
wildlife
pine
unve
##ioma
represses
##obal
flour
ejaculation
tauroch
polyuria
transplantations
effected
0004
##mis
maf
##oplakia
posteriorly
##ibe
hyperphosph
mma
##yam
nonmal
bol
deactivation
mucopol
coincidence
norweg
demented
acellular
ropivacaine
2500
vk
avers
pixel
dihyd
mano
chk1
indocyanine
hoech
##tetrazolium
histogenesis
##ygb
scopolamine
slaughter
metachronous
##enil
unsusp
neuroscience
misfolding
remyelination
femoris
enteritidis
quiet
tertile
ectodermal
flower
tartrate
fmf
##ignant
intensely
neocortical
parasitemia
##atri
refractor
##fi
porphy
diath
##pes
oxygenated
malarial
cvs
bouts
seropositivity
guarantee
citrulline
prs
ngal
2alpha
refraction
imbalances
##arius
niches
denaturing
prk
repop
fibroma
##±5
ivus
##iry
hyperexc
mnc
upregulates
##onins
tall
isoc
hexokinase
achalasia
detached
contributory
##inarily
##ivoc
398
vec
corneum
ivd
biotinylated
exploiting
##ircular
consume
downregulating
##phosphatidyl
ophthalmoplegia
mastocytosis
tritiated
rns
##arginine
stoichiometry
nanotubes
dies
triamcinolone
mph
gammopathy
pentyl
meck
##ethane
igt
synaptosomes
partnership
crises
cooperate
ndv
fragilis
icsi
innovations
ccrcc
densely
provinces
4b
nx
insemination
##aclavicular
##acetamide
exhaustive
nucleosides
##othecin
coatings
lmw
sids
discipline
##ozoite
##azolin
entorh
##ynin
sip
transaminases
corpora
##access
anthelmin
fludarabine
deployed
lycopene
##reek
##ications
projecting
244
##thio
peculiarities
infun
phl
##eri
c16
zikv
ace2
distinguishable
lakes
257
ferrous
##obenzyl
teacher
barc
eotaxin
reliance
reticulo
so2
postc
hypogloss
##organized
conceiv
##olae
estimations
##opp
nontum
infects
hpc
trehalose
intraosseous
##flexia
connect
macula
villages
debul
hoechst
lns
prominently
##eptal
sid
cardiometabolic
instructed
amitr
bulim
specify
masticatory
downregulate
distensibility
##ovan
hybridoma
##omodulin
immunopos
redundancy
##ectant
repairing
bso
##oplankton
habitu
xo
panels
##tite
formations
androgenic
stimulants
coral
computation
304
pluripotency
alcl
chc
stut
concerted
giardia
expands
reoper
ketanserin
cages
thrombosp
311
u0
tethered
depolymer
cardiolipin
tular
cia
4r
marketed
locking
pvs
hscrp
##agenesis
threats
carcinomatosis
iav
isos
paraganglioma
rii
tuberculin
thiazolidined
neopl
preventative
268
daunorubicin
##ablation
pws
sfl
truncation
haemolysis
spectrophotometry
messengers
##idrosis
hydroxyethyl
employs
spongiform
lkb1
clearances
athletic
p70s6
shortcom
calories
peroxides
dione
dasatinib
shortcomings
il1
laid
1971
obstetrical
##emann
classifier
258
201tl
replacements
shocks
hyperinsulinemic
nominal
algal
hub
##iflex
accumulations
irb
##aterial
phyto
refractoriness
##omical
vera
##orrhoea
##isia
cric
unsuspected
##ulectomy
harness
##127
reble
smith
cnp
nct00
thrive
##idial
degenerating
irel
multipotent
endolymphatic
isoleucine
unaw
anesthesiologists
daf
forceps
##oprofen
perinuclear
hypervascular
##c4
##cast
##f1a
niacin
gwas
cynomol
##zens
concussion
secretag
folf
perfringens
thai
grows
##arbox
##ubular
neuroectodermal
carers
hybridized
ontogeny
scaphoid
plexiform
hai
synchrony
ipt
travers
geor
##indolol
immunosuppressant
taqman
recirculation
autoantigens
1p
entorhinal
##rew
jaws
metacarpal
chlorophenyl
vegfr2
##ophysin
fecund
vo2max
voltamm
ireland
penta
poag
localizations
roman
302
sphingolipid
metabotropic
fabry
##10a
irreversibly
witnessed
associating
##emas
guerin
440
##etermined
tenofovir
eyelids
hepatocarcinogenesis
monogenic
sympatho
##ela
practiced
dermatologists
triceps
puva
muss
hopefully
reticulocyte
cdc2
catarrh
hemophag
serologically
minip
urge
anticardi
fight
spheres
##entration
pao
##ungin
asparagine
pyraz
michaelis
comments
predator
neurotensin
royal
##anteric
u0126
macaque
manoeu
ttx
prag
mtr
ministry
broilers
styles
economy
rainbow
unadjusted
##entrifug
tnp
osteotomies
tst
lordosis
##ubl
hypopituitarism
readm
bicycle
flowers
tunica
constellation
luts
##amivir
halogen
##vaccin
fpg
laevis
awak
ced
##jured
circumvent
macron
##ibilities
276
hypoalbumin
passively
##ytoid
p73
insid
gaussian
##endin
ulcerated
##ochromes
fermented
##amido
##gy
##etector
nmma
hypochlor
prodrom
295
recruits
ffp
sensitis
##iphatic
adapting
degenerate
hypercapnic
discol
µmol
fmk
##pheric
radiolabelled
discordance
mendelian
levam
relaxing
corticospinal
exerting
wales
ambig
ethmoid
nucleotid
##lorinated
mitophagy
triangular
supernumer
tunn
470
enthal
frc
titrated
tenascin
phytohem
piperacillin
paths
norwegian
syndecan
fdp
cyano
##cintigraphy
mercapto
##illed
dmh
alveoli
##lete
insular
mtp
##508
pyridoxine
m4
clad
##activities
acf
deceleration
##enstrual
interconnected
johnson
edent
488
equimolar
fusiform
file
genic
variably
illustrating
##⁻¹
##estration
holo
tonsil
h9c2
267
##domains
##spr
410
vep
contracting
uraemic
##ifiers
accord
cgp
sant
insidious
qd
jc
preoptic
kw
mongrel
layered
hyperpigmentation
resorb
agt
graduates
dfmo
haemostasis
carboxymethyl
papaverine
synaptophysin
ulna
shortness
reflective
psychogenic
hemagglutination
emr
instilled
epha
##ardias
uninv
meckel
##atriptan
glomus
constituting
meningoencephalitis
##reshold
##ceps
appreciably
emitting
##osylceramide
##etrahydro
285
categorization
calmette
288
campaigns
##ethamine
##lutide
##coming
exudates
tdr
semicircular
lipomas
dul
hl60
amitriptyline
fluorine
##epidermal
##trid
146a
##cat
##aluable
znf
baboons
##olac
chair
cd24
fgfr1
anticardiolipin
hypomagnes
acrylamide
coryneb
overactive
cocktail
exemplified
##epl
##gfr
305
myoepithelial
eruptions
carcinoids
tata
##rhe
17p
##yses
facets
selenite
##idines
linol
raloxifene
unconjugated
tank
##iges
##opeptides
dermoid
polyst
chorea
acetylsalicylic
##otyrosine
##ulosis
##agi
ccr7
machines
dermatosis
arrestin
primordial
irrig
ophthalmological
niss
ganglionic
##metry
zh
bubble
##bine
flair
273
hemiplegia
bromodeoxyuridine
##oacetate
##idylate
aac
depleting
transected
candesartan
aliphatic
chromaffin
catalytically
bcnu
suprasellar
intu
operates
soma
##ensory
ligamentous
dabig
phosphoprotein
allyl
proves
cpc
rfvi
u2
prevalences
derivatization
##che
angiopoietin
mrt
dipeptidyl
steric
##ophilin
nonsyn
reentrant
cytopathic
sexuality
rgcs
cdk5
##oven
dabigatran
transabdominal
probed
interfacial
polluted
osmolarity
poc
uuo
acnes
##160
supernumerary
##asalazine
ther
pfge
leaching
262
anthracene
preponderance
relaxant
a20
ultrastructurally
overuse
##uction
metatars
reentry
##ondylar
roof
##eak
malaise
##aseous
ghd
pparalpha
disproportionately
anticipate
pressing
cephalosporin
pex
electrogr
attrition
rpmi
ssr
vta
wildtype
##c12
##board
euc
mirs
abolishes
addicts
preneoplastic
influential
drip
klf4
##onent
mumps
mycotic
recession
ephrin
skov3
rcs
##ozin
5q
##child
##avern
##osable
##eor
h2ax
##establ
fungoides
##obstruc
citi
nile
prospect
##ellulose
avenue
inaccurate
aboriginal
##americ
reex
ssdna
thymectomy
chylomic
##m3
preadip
pockets
benefici
435
pva
ht2
##bec
ecog
latit
301
##tles
methacrylate
adrenals
ginsen
grap
278
liquids
benzoate
igf1
foraging
ureters
yog
antimet
graphical
##lc
send
dysgenesis
##arbonyl
aptt
ssb
esterification
unreliable
industrialized
excursion
igg3
plastid
aap
computing
shuttle
##asally
checkpoints
proliferations
##ystin
childbearing
272
citations
ceus
xenon
tachyarrhythmias
fz
weighting
##icated
thrombospondin
vasorelax
provocative
##hibition
abortus
##lycan
foxm1
##anone
ocs
##ennial
necessitated
recalcitr
transluminal
ptu
dad
pharmacist
notice
mammographic
##idental
wasp
14th
hydroxyphenyl
##ouses
pial
riva
equi
ipsc
##tina
mucins
catabol
ssris
##ukast
lipofus
adrenomed
ji
ruminants
##oxime
keloid
malocclusion
barely
explanatory
unmas
##rey
activations
##escens
strongyl
herpetic
arthrography
ppg
##6c
mpi
athlete
manoeuv
immobility
proptosis
fe3
immunostained
roch
methylphen
nk1
335
heterogenous
stainless
laminae
mailed
fluoroscopic
##low
relaxin
##vidin
##edrine
hdacs
dihydropyridine
hematology
biologics
##idases
##avp
knife
runx1
cdc25
##ysin
phae
reflectance
interim
##apentaenoic
rts
vur
hyperactive
excisional
centromere
pheromone
periplasm
hetero
inosine
quartiles
benth
##reen
sri
p40
nitrophenyl
idh1
rotations
fgf21
dates
czech
harms
micr
erythroleuk
6h
nonmalignant
perforating
d5
regress
granzyme
crystallographic
gaseous
rosuv
artemisinin
paraoxon
suramin
llc
levamisole
exploitation
vow
##otence
multidetector
v600e
meter
sest
durability
##peri
ribonuclease
dysmorphic
##rad
silence
congenic
osteoarthritic
cryptorchidism
dibenz
##irradi
oropharynx
##ecalciferol
##hydroxy
frameworks
forec
##ohydrolase
##7d
exams
cardioplegia
mayo
pvc
incentives
##oide
antitumour
curved
##omuc
sensations
##rotected
cerc
temperate
##plenomegaly
fkbp
microch
rosuvastatin
artef
ngs
ileoc
drow
##insuff
##eks
micronuclei
nonischemic
chelators
hospice
heterozygote
prehospital
5alpha
##elast
perir
expansions
hypercalcaemia
phenoxy
at2
vibrational
##trim
captive
##onation
fibroids
sustainability
polyphenol
##mar
biocompatible
angiotensinogen
brug
subgen
focally
wisc
mucociliary
##pb
hexane
minnes
mlh1
overestimated
herg
##oning
##achus
doi
igd
fcgamm
substituent
adrenocorticotropic
terbut
paraparesis
rarer
lymphadenitis
hallux
##431
l6
cotransporter
shelf
##inesias
echogenicity
277
##ureas
spina
hypermet
bent
rebleeding
##agin
dome
p38mapk
dentist
mef
segregated
conserving
cfr
ltc4
manic
csd
##5c
##109
mitigated
bismuth
fellow
enjoy
sangu
monozyg
moxib
pugh
##uronate
hdm
##opodia
n0
phytohemagglutinin
arachidonate
magneti
multilocular
vp1
amputations
intranasally
hypoglossal
hfs
##ac1
gq
pipeline
ibr
tetrahydrop
intranuclear
pedigree
matches
bsp
markov
remediation
moxibustion
##hb
##male
unequivocal
pyridyl
##econds
enoxaparin
ias
lips
tfs
meso
autumn
bdi
pedunc
proinsulin
mrd
cran
succinyl
carib
dermatoses
neurosurge
5mg
##ogast
stripping
readiness
catalysts
mace
minnesota
idc
nearest
pmp
vastus
##oxym
solubilization
hsp60
comfortable
fivefold
antecedent
##ibenz
tarsal
peroxisomes
scab
matured
##omectomy
dimethylthiazol
mutagenicity
cynomolgus
preserves
inex
postnatally
predetermined
collim
##hedral
hepatosplenomegaly
transformants
ostium
occurrences
bse
hfe
isotypes
radiculopathy
isi
##acing
biochem
##accum
charcot
##cc2
bladders
dide
##overs
pads
door
indo
weaknesses
protruding
biventricular
at1r
impotence
##lexy
disintegration
##iced
evenly
unsuit
succumb
quadratic
terminate
somn
polychlorinated
austr
inappropri
ntp
##ascial
trus
fcγ
strang
thymocyte
##bert
magnitudes
impaction
arid
ambulation
##ineous
hydraz
hirsch
website
normothermic
pooling
pox
##filtration
invertebrates
##ensin
psv
pab
dm1
fumarate
heavier
psg
chimeras
##omys
lifting
incubating
assimilation
manometry
echogenic
261
nothing
msv
moyam
bifida
##osphing
gstm1
##olev
tpr
laryngectomy
xrd
florida
##antine
moyamoya
impulses
haploinsuff
tme
gingivitis
salicylic
hominis
##roxaban
relaxations
hyperintensity
lactis
orchid
##ar1
microh
274
predominate
sympathectomy
##ocryst
uncharacterized
streams
transporting
manager
dpat
tachycardias
adenomyosis
equivalence
radioisot
bioreactor
cleave
rt3
js
mcv
clavicle
metabolomics
grazing
rivaroxaban
spc
tunic
mre
##utamide
replen
avidin
##igmented
##rolases
bats
peritumoral
midwives
zr
460
git
junior
retrop
narrowed
disclose
delicate
macros
naev
inclination
iud
moh
dioxygenase
ipth
craniopharyn
##otropia
unavailable
breasts
ns3
##etitive
subendocardial
##unit
completeness
lpc
jnk1
##electroph
##his
telmis
morbidly
##idinyl
bursa
bringing
manure
##ivocally
immunomodulation
ruth
lateralis
ultracentrifug
appendiceal
mimicry
monomethyl
albendazole
##imol
abbre
polystyrene
invaluable
decoc
rotated
reads
escalating
diamin
lexical
receives
≥2
cyanobacteria
ch3
cavitation
ncam
intoxicated
##anate
dipole
rtx
constructing
spm
proviral
papillae
hts
chiefly
escap
286
syrian
##asy
telmisartan
reca
colistin
hco
culmin
seeks
625
mpr
nucleated
trabeculae
oliv
wallis
gos
ortho
dynein
##vinyl
##yne
tec
terbutaline
m0
##glutaryl
subreg
tetramethyl
acetab
##olyl
αv
benefited
2k
nonadh
dorsiflex
296
nb4
chorioamn
confluence
##ophysis
sympos
tegmental
sax
snare
menarche
defecation
plgf
longstanding
improper
bcrp
escs
lymphangiogenesis
ladder
cytidine
##guanine
abbrevi
tg2
colliculus
thrombo
trogl
##ethrin
intraarterial
nw
1s
##amidine
fixing
dysmen
##etting
##ounds
unilaterally
emulsions
lapse
##achian
##fur
necessitate
##opurine
pdcs
xeno
wakefulness
dystrophies
nip
pragmatic
22q11
hexa
sons
emitted
empathy
erbeta
tics
iκbα
inlet
[...]
